#version: 0.2
i s
e n</w>
t t
l l
t a
i n
i t
v a
s t
i n</w>
k a
a n</w>
e n
k s
o n</w>
t e
t u
k o
j a</w>
m a
e l
o i
k u
ä ä
s i
k e
a n
t i
o l
s s
is t
a l
e tt
e r
u u
j o
t ä
v ä
v i
is e
m i
a r
k i
m u
t o
tt a
ll a</w>
s e
ss a</w>
u o
l a
n n
r a
ä n</w>
s a
m m
t a</w>
h d
i k
e t</w>
p a
ll e</w>
d en</w>
st a</w>
it ä</w>
r o
v o
o p
ks i</w>
m is
ist a</w>
l i
t y
m in
k a</w>
ää n</w>
k ä
n i
e i
ll ä</w>
va t</w>
tt ä
p u
ett ä</w>
j ä
s ta
n e
j a
e i</w>
d e
st i</w>
is i
mm e</w>
va l
is s
o n
i l
u t</w>
y h
r i
u l
in en</w>
m en
h e
tt a</w>
k o</w>
h a
ta r
u s
t ä</w>
t oi
l e
ka n
y ö
ss ä</w>
ks en</w>
al u
v a</w>
ks e
p ä
s i</w>
s e</w>
s in
a i
ks i
s o
k in</w>
ä n
e d
ta an</w>
i tt
p er
ist ä</w>
st ä</w>
p ää
u n</w>
k y
2 0
l o
j en</w>
is en</w>
ol e
u ro
it y
iss a</w>
y t</w>
p i
v oi
is i</w>
y y
i h
o ll
t ö
n ä
r e
yh te
m ise
kä y
h y
it a</w>
tta a</w>
ko s
s en</w>
e st
al a
s en
. .
ta i</w>
ol e</w>
it e
v uo
m ä</w>
u a</w>
n o
v ä</w>
uro op
is uu
ku u
ise sti</w>
m e
a si
o s
n a
20 0
k ä</w>
vä t</w>
r j
l u
m uu
h än</w>
p o
T ä
ma an</w>
ka u
is tu
ä ä</w>
i den</w>
O l
h o
E uroop
ää r
an o
ka an</w>
tu o
u st
ö n</w>
a an</w>
ist en</w>
mis si
m yö
p ar
n yt</w>
p it
sa a
l ä
ta a</w>
k i</w>
s y
va n</w>
Euroop an</w>
m ä
e e
is ä
ol i</w>
ka a</w>
oi ke
it u
v e
ise t</w>
a se
.. .</w>
ti e
m äär
s u
E n</w>
m o
val ti
J o
t en</w>
e en</w>
va r
i in</w>
m er
m än</w>
ti k
pä i
o vat</w>
kos ke
i a</w>
de ll
is te
S e</w>
ar tik
v el
n e</w>
ke r
H än</w>
h u
mi e
ka ik
t ään</w>
it o
a a
va i
s ää
h än
u vo
ttä ä</w>
op i
ku in</w>
ko h
n ä</w>
ll a
ko hd
ks et</w>
h uo
s uu
u tu
in ä</w>
E i</w>
d i
min en</w>
a in
M itä</w>
j oi
tt el
ke s
tä y
m an</w>
k in
jä sen
s a</w>
l uo
mu ka
p al
ko missi
a ssa</w>
h i
päi vä
u n
a a</w>
ti ed
vä l
en n
artik l
rj est
jo ka</w>
o r
toi mi
isi a</w>
va in</w>
v er
is in</w>
d än</w>
ol i
jä rjest
s uo
ksi a</w>
it ett
ty ö
iss ä</w>
a u
vo i</w>
is ta
opi mu
tt i</w>
ne uvo
h alu
u ra
va sta
ta pa
yhte is
d o
t in</w>
ta lo
k ö</w>
1 9
ku n</w>
ma a
e si
s itä</w>
mu tta</w>
ei den</w>
mm ä
t ka</w>
li itt
h ä
i r
tt e
la a
vi en</w>
n te
myö s</w>
h en
ni in</w>
u sta
o lla</w>
jo tka</w>
h te
K a
m p
m a</w>
st en</w>
u d
tta va</w>
ll e
ase tu
tar ko
y r
K o
s el
an n
in n
hy vä
v in</w>
o sa
u ni
kuu ta</w>
s ä</w>
M i
ki l
ol isi</w>
k en
it se
se kä</w>
k ti
hd o
r i</w>
s opimu
jo h
va a</w>
vi i
jäsen valti
k ke
m it
m ista</w>
j ä</w>
ku nn
o h
t i</w>
tt ö
Ol en</w>
j el
i ka
tä ä</w>
: n</w>
mi o
Tä mä</w>
t ko</w>
ma r
ul u
kse en</w>
se ura
K u
p an
s in</w>
a t</w>
ei dän</w>
u lla</w>
isi in</w>
pää tö
u s</w>
kan ssa</w>
te h
si itä</w>
r ke
la men
tt o
st on</w>
vi r
M in
jo s</w>
E U
per ust
j an</w>
oi den</w>
Jo s</w>
m itä</w>
h an
r va
tu le
i lle</w>
al ta</w>
uni on
artikl an</w>
y ks
y hd
tt u</w>
T i
toi min
s isä
S i
d ä
o t</w>
u r
tä män</w>
ett a
mis en</w>
s ano
N ä
e s
järjest el
it i
e et</w>
määr ä
p ro
19 9
hd oll
jä l
el ä
p ol
ha ll
m ään</w>
e ll
k ka
ks y
va a
t ää
t en
par lamen
te en</w>
E Y</w>
ma hdoll
er ity
t ki
an i</w>
ki r
K i
ma n
tt u
va n
u lle</w>
mi el
pu he
mise ksi</w>
: o</w>
vai ku
va h
ti la
N :o</w>
u sta</w>
te hd
e h
p oi
ik ä</w>
k kin
jo n
päivä nä</w>
en i</w>
an ta
er i
oike u
p y
M u
hyvä ksy
ih in</w>
ku n
komissi on</w>
g i
liitt y
l op
y n</w>
tie to
a s
kti i
mar kkin
h in</w>
h oi
tä mä</w>
s ä
st o
m e</w>
d a</w>
st ä
m ma
e hdo
nn e</w>
i en</w>
seura a
ö y
t ka
h el
kan sa
j e
kse ssa</w>
st u
mi en</w>
oll ut</w>
tt e</w>
H y
vi a</w>
j u
d aan</w>
in a</w>
it el
l an
n ut</w>
nn ö
ta va
ar vo
union in</w>
e ssa</w>
te l
mie s</w>
S a
m istä</w>
pu ol
ar vi
p el
sin ä</w>
mu kaan</w>
m y
kaik ki</w>
h tu
tu l
to te
K y
ano ma
en a</w>
I S
ik ka</w>
h ar
ma ssa</w>
tu tki
a al
ku l
kohd an</w>
H alu
ett el
i t</w>
ei vät</w>
en e
te r
ka t
ma ks
it en</w>
n tö
ne et</w>
e t
huo mio
ko l
o ssa</w>
0 0</w>
k ö
T o
st el
O le
hän en</w>
O n
tt ä</w>
e ssä</w>
u tta
ma a</w>
T a
it en
tää llä</w>
ko ko
m pä
muka isesti</w>
tu rva
A r
y ty
tapa htu
vä li
Ko missi
l isä
y le
ky sy
T u
h e</w>
yr ity
re ktii
in o
a ja
kes ku
d en
mise sta</w>
mise en</w>
V a
neuvo ston</w>
ise en</w>
yhteis ön</w>
h in
ke en</w>
ai ka
e dell
ll isuu
ku iten
p e
ta n
ka nn
j ul
p a</w>
mi a</w>
än i</w>
er r
ol en</w>
tä rke
mm in</w>
pit ä
l ä</w>
nn a</w>
mit ään</w>
va sti</w>
j o</w>
k ään</w>
t o</w>
talo u
asi a
joh ta
pu ole
te ke
val mis
M inä</w>
ka s
1 .
p ala
asetu ksen</w>
tt i
V o
ta n</w>
tar ka
min ua</w>
ko n
ke h
Ti ed
vah v
si tt
ta va</w>
o do
vä n</w>
s an
E n
ol et</w>
el ä</w>
sa a</w>
se lla
kan a</w>
On ko</w>
hy vin</w>
sin ua</w>
s yy
E T
ito s</w>
oh jel
ta a
ri i
ke a</w>
uu n</w>
m ei
s ala
va pa
te taan</w>
pit ää</w>
p yy
di rektii
ll inen</w>
is a</w>
voi daan</w>
enn en</w>
ai he
huomio on</w>
vaa ti
jon ka</w>
r yh
ky se
M a
käy ttö
1 0</w>
te k
va ra
vä ä</w>
in ti
ra ho
h an</w>
tt y
koh ta</w>
J a</w>
pol iti
y l
E N</w>
vir anoma
min ä</w>
ker to
tu nn
jäl keen</w>
l ää
vi elä</w>
st y
sitt en</w>
ni iden</w>
e mme</w>
tt iin</w>
i m
kos ka</w>
r u
e ksi</w>
hen kil
tule e</w>
V i
S in
tu lo
tu n</w>
ll o
hän et</w>
k ki
ku ulu
T ul
Ä lä</w>
isi ä</w>
sopimu ksen</w>
va an</w>
k u</w>
tar vi
pal vel
t e</w>
li i
käy te
k el
y ttä
toi men
ka a
O n</w>
tar v
o nn
e e</w>
an ut</w>
ma lla</w>
tä ssä</w>
vaiku tu
en si
u se
kä si
p oli
kä ä</w>
op e
la in
mer ki
jo ta
tutki mu
p pa
r is
ll is
si a</w>
ee lla</w>
parlamen tin</w>
N iin</w>
Mu tta</w>
tehd ä</w>
a v
tt ia</w>
n i</w>
st e
ist y
kohd assa</w>
ja t</w>
i lla</w>
l tä</w>
artikl a</w>
ss a
talo us
r an
ty y</w>
so ve
ett ä
n u
m yy
tä tä</w>
la s
e pä
uu l
ra ha
sta an</w>
g el
o ttaa</w>
vi ä</w>
it se</w>
toi m
H ei</w>
st o</w>
ih en</w>
p ite
e llä</w>
P u
men ettel
Ar vo
lä he
h ei
teh tä
pa ika
kat so
a sti</w>
Mi ksi</w>
so vel
u jen</w>
os alta</w>
ti in</w>
ett u</w>
ett e</w>
d a
mp i</w>
oi tta
min un</w>
ki rj
erity isesti</w>
pro sen
li ik
se en</w>
tu n
y s
suu nn
kuiten kin</w>
ki en</w>
T ar
joi den</w>
hä ne
sää nnö
ku lu
ksi ä</w>
l öy
komissi o</w>
j on</w>
henkil ö
ku ten</w>
ett a</w>
jo ita</w>
ksi in</w>
I T
sta a</w>
al o
v uu
si ir
d ä</w>
ttä vä</w>
Ki itos</w>
te ttava</w>
1 0
Ka ik
ma in
r ist
Ol et</w>
val vo
k ko
t kö</w>
E t</w>
ki a</w>
la us
j uu
i ä</w>
it us
si ihen</w>
tied ä</w>
e de
ik ko
i s</w>
yhte y
Arvo isa</w>
o tta
o a</w>
ka la
tar jo
V L</w>
n ta
m on
ehdo tu
v u
ää n
dä t</w>
per usta
ko r
vuo den</w>
o ma
in g
h ti
H e</w>
an ne
R a
y mpä
M iten</w>
l is
puhe mies</w>
si llä</w>
T A
S e
P i
an taa</w>
kä s
mmä r
ja t
nä y
ta ka
1 2
il ma
ka i
kysy my
ku ul
hän tä</w>
vuo ksi</w>
N i
mer k
va st
on gel
ist yö
ty y
jo ssa</w>
pal jon</w>
el in
o ita</w>
K ä
sisä l
t s
ist ä
ensi mmä
a sta</w>
mi l
ma tta</w>
ks ista</w>
min ulle</w>
arvi o
N e
an no
to d
EU :n</w>
m eidän</w>
jota in</w>
pitä isi</w>
t y</w>
ih mis
keh ity
kse sta</w>
j ien</w>
ra u
ko ko</w>
in i</w>
ole van</w>
tar k
kir ja
vaati mu
tt eiden</w>
ul ko
isuu s</w>
J ä
te ho
V al
j an
per i
pu h
va ih
h yö
halu a
20 1
m pi
p pu
M ikä</w>
kansa ll
käy ttä
ö n
yhte istyö
tä ntö
ol o
e ikä</w>
.. ..
h er
r in</w>
T e
Hy vä</w>
t in
ta sa
ko m
ma t</w>
min ut</w>
H a
kil pa
t on</w>
ise ssa</w>
K un</w>
turva llisuu
mm än</w>
in no
il man</w>
jo tta</w>
ud a
i llä</w>
kan sala
sin un</w>
toimen pite
ett y
var mis
hy vä</w>
L i
it ä
ta voi
sin ut</w>
vi ra
llo in</w>
l in
ik ö</w>
si l
L a
sin ulle</w>
so si
jäsenvalti oiden</w>
e tu
V A
käsi ttel
ka n</w>
n a</w>
de lla</w>
Ole tko</w>
puhe en
itett a
ra tka
ti lan
pa in
Tä ssä</w>
Ky llä</w>
ai kana</w>
ll istu
isuu den</w>
p uu
itu s</w>
j ää
var ten</w>
ise sta</w>
va li
al oi
ain a</w>
m pa
en t
T E
er i</w>
ka l
ik a</w>
val ta
tapa u
al i
sää d
ttä in</w>
muu to
ksi en</w>
y stä
va ro
I N
la p
koh ta
Y hd
a lle</w>
etta va</w>
ki el
v ista</w>
T oi
ympä rist
ka hd
ra s
ll i
ku sta
ll isesti</w>
pu hu
p p
kilpa il
us ko
su hte
n y
men e
L u
no uda
de sta</w>
tä stä</w>
M en
tä nne</w>
ra ken
en ää</w>
per ä
yhteis ö
vuo nna</w>
m i</w>
J a
koske vat</w>
is taa</w>
Kaik ki</w>
kesku stel
P a
Halu a
tta vat</w>
ul o
sovel ta
ni itä</w>
osa llistu
ks en
il mo
y ksi</w>
sa i
e uro
joi lla</w>
kom ite
Halu an</w>
tar p
si en</w>
tt anut</w>
o ta</w>
b i
sosi aal
y li
vii me
N yt</w>
ra a
err a</w>
täy täntö
v i</w>
E Y
Komissi on</w>
ti a</w>
ole mme</w>
a s</w>
huo ma
to a</w>
lä h
tu t</w>
a lla</w>
200 6</w>
ter ve
poi s</w>
te ttu</w>
ett ei</w>
isi lle</w>
d y
mio istu
I I</w>
talou dell
it ko</w>
a jan</w>
Komissi o</w>
asi an
po r
tu s
määr ä</w>
va sta</w>
tt y</w>
he t
j en
M ar
ja a</w>
ma tto
uu d
ist o
ll aan</w>
ss aan</w>
vasta a
mit en</w>
v in
P ar
M eidän</w>
R o
al an</w>
ää ri
to jen</w>
ka ksi</w>
tarko itett
ika n</w>
ks issa</w>
ise ksi</w>
S en</w>
täy tyy</w>
ei llä</w>
ma an
de ssä</w>
f i
in ka</w>
jä sen</w>
poli itt
u ja</w>
is sa
po tila
par e
voi vat</w>
mi kä</w>
u h
nä in</w>
r in
2 0</w>
it e</w>
S el
k e</w>
mi in</w>
in väl
ker r
perust eella</w>
mä t</w>
ee ssä</w>
jul k
y mmär
3 .
jo ta</w>
kunn an</w>
d in</w>
V oi
si inä</w>
ll isen</w>
l ta</w>
ko o
L isä
m in</w>
vahv iste
nn e
ne en</w>
koske van</w>
un a</w>
taka isin</w>
l y
ko ul
tä hän</w>
i li
vi in</w>
direktii vin</w>
mi ä</w>
aa ti
mu r
Min ulla</w>
de ssa</w>
nn ön</w>
puheen johta
ka r
valmis te
Min un</w>
tarko ite
tt ua</w>
u ksen</w>
ll ut</w>
ä t</w>
mm an</w>
joi tta
tote u
t u</w>
koko na
M issä</w>
A i
K O
tu s</w>
tied o
si is</w>
en sä</w>
a st
S inä</w>
kau tta</w>
artik la
v on</w>
Tied än</w>
ett iin</w>
tek n
si ja
val mi
is ista</w>
juu ri</w>
ke hi
l en
asetu s</w>
a jo
kes ki
mise stä</w>
in te
K S
M uu
isi t</w>
A nte
mo ni
to n
ti t</w>
ma sta</w>
a ika</w>
oi ttaa</w>
ust en</w>
te i
is en
v en
Ante eksi</w>
E mme</w>
r y
200 7</w>
ll ä
Ku ka</w>
a staan</w>
halu a</w>
puole sta</w>
vä sti</w>
en er
an s
Ole mme</w>
si t</w>
ta so
5 0</w>
peri aa
200 4</w>
A l
toimin ta
prosen ttia</w>
tte et</w>
E h
mil jo
L ä
yks ity
it i</w>
si ellä</w>
K uu
va ll
a pu
1 2</w>
ar a
tä lla
tt een</w>
H än
P ää
n ope
h al
vasta an</w>
suo jel
vo in</w>
ra k
3 0</w>
a m
suunn itel
E U</w>
ja ks
i v
ll ista</w>
Tä män</w>
K an
tu u
P A
mie h
la i
o sta</w>
j ö
ko i
menettel y
ai kaa</w>
mu o
e en
sove lle
markkin oi
m mi
va ssa</w>
ma iden</w>
is yy
kansa inväl
ed usta
voi ma
hall in
p ano
liitt eessä</w>
ha i
ik o</w>
v äär
nä kö
käy ttää</w>
no in</w>
K os
mis sä</w>
ri a</w>
ny ky
el ta</w>
Y hte
st ö
täytäntö ön
a su
ene mmän</w>
miljo on
tied ot</w>
ol tava</w>
pu n
asi assa</w>
e sta</w>
i me
n ti
pa s
o issa</w>
tu ksen</w>
tu o</w>
pi en
myö n
k ku
E uro
ko rke
käy tä
ise ssä</w>
tt ee
saa da</w>
Eh kä</w>
h eidän</w>
kos kaan</w>
st i
e uroop
ET Y</w>
ho ito
isuu tta</w>
er o
markkin a
tie tää</w>
4 .
it si</w>
tuo mioistu
ttä mä
1 5</w>
itu ksen</w>
ää ne
h a</w>
yhtey dessä</w>
ise lle</w>
e seen</w>
to ja</w>
T uo
jo lla</w>
u ksia</w>
asi a</w>
to dell
kusta nn
kau den</w>
n el
vuo ro
vuo tta</w>
ke mu
jo issa</w>
ett i</w>
tö n</w>
200 5</w>
ks eni</w>
suu r
ise lla</w>
m ääri
e ita</w>
vi l
ki inn
me t
E R
euroop pala
Kos ka</w>
tu lla</w>
s is
e te
ain o
an a</w>
d i</w>
va kuu
ko rva
ll een</w>
n ään</w>
mm e
maa il
os uu
e s</w>
y te
h ta
mu odo
häne lle</w>
m g</w>
m ää</w>
ä kuuta</w>
ma sti</w>
kehi ttä
200 3</w>
alu ee
m en</w>
mu iden</w>
ener gi
yl i</w>
perust u
tä llä</w>
men nä</w>
Ne uvo
väli llä</w>
a kin</w>
ll ään</w>
sove ll
la itt
Sin un</w>
tte ita</w>
d in
J u
pa ino
ik ä
M e</w>
eri ttäin</w>
kse lla</w>
r ä
k on</w>
lä hte
A nna</w>
muu ta</w>
oike us
il m
g a
ks ena</w>
tt ö</w>
m b
koul utu
ympärist ö
1 1</w>
N e</w>
ta i
ty ä</w>
te et</w>
el tä</w>
tarko i
EU VL</w>
p yr
o lle</w>
2 .
ra te
l i</w>
200 8</w>
li in
kes ke
nä hd
H ä
että vä</w>
y ttää</w>
Vo i</w>
nä mä</w>
jo ulu
luo nn
ku un</w>
us i</w>
0 00</w>
ann ettu</w>
väl in
ta t</w>
ta mme</w>
ttel i
V ar
pu hel
T I
järjestel män</w>
ty t</w>
A S
esi ttä
d on</w>
oli vat</w>
A n
perusta mis
yhd essä</w>
y ri
n an</w>
vali o
vai ke
va i</w>
k ää
vast uu
u kset</w>
ma al
muu t</w>
va ikka</w>
to della</w>
p pi
S aa
ko ro
sovelle taan</w>
mma t</w>
E T</w>
t ö</w>
k ko</w>
va ka
ta s
vä hen
jul ka
tarko itu
yks ik
raho itus
päätö ksen</w>
hu ol
200 0</w>
ei lle</w>
elä in
mie t
ise stä</w>
200 2</w>
Sel vä</w>
itetta va</w>
sin ulla</w>
M IS
py sy
V ä
S an
ten kin</w>
rii ppu
artikla ssa</w>
ä mme</w>
sy n
hu ole
yh ä</w>
EY VL</w>
anne tun</w>
vi lle</w>
tuo tta
O do
u ko
p ä</w>
miet inn
ku ole
sää ntö
tieto ja</w>
sai ra
r uo
os a</w>
oi hin</w>
el i
de tään</w>
han kke
g en
200 9</w>
llis yy
uu dell
mo k
tärke ää</w>
s pan
ll ani</w>
päätö s</w>
vä hän</w>
oike in</w>
laa ti
käyttö ön</w>
j än</w>
sä h
au ttaa</w>
tark istu
ky llä</w>
ite taan</w>
im en</w>
200 1</w>
Tul e</w>
N a
ka p
ede s</w>
lii an</w>
la ito
lop u
ra ka
s ito
v issä</w>
6 .
Nä in</w>
sano a</w>
T O
s yö
h uu
te ki
d et</w>
199 9</w>
ala lla</w>
el i</w>
I n
R O
ri ko
Ä Ä
ai ko
E ikö</w>
ll isten</w>
kau pun
al ku
av ulla</w>
st us
En tä</w>
tä nään</w>
o o
politi ikan</w>
terve y
ik kaa</w>
itse e</w>
ta ppa
tu r
käyte ttä
1 4</w>
ki i
d e</w>
ti l
mä llä</w>
h erra</w>
n uo
au to
o so
is ena</w>
tote utta
in f
de mok
on in</w>
merki ksi</w>
en na
est äni</w>
sä il
pit o
mpa a</w>
is o
1 8
st rate
ker ta
v o</w>
ett y</w>
ty n</w>
g an
aino astaan</w>
än yt</w>
k ka</w>
miel tä</w>
N o</w>
muu tta
halu an</w>
po h
ei lla</w>
1 5
kann a
ul ta</w>
v it
1 7
si lle</w>
te tta
ta nn
nä h
m än
R i
isi vat</w>
P o
Ti e
lisä ksi</w>
kerr an</w>
tava lla</w>
a mma
A N
j uo
jo hd
tu u</w>
ll iset</w>
ratka is
u ttaa</w>
kunn ossa</w>
Lisä ksi</w>
un ut</w>
ha a
o si
kir jo
Y r
pa ko
koske va</w>
L uo
2 5</w>
N o
mahdoll isuu
täy sin</w>
te le
taa s</w>
an eet</w>
c k</w>
yh tä</w>
merk ity
pa hoi
R e
vo in
H i
sano i</w>
1 3</w>
kse ssä</w>
ja a
el o
0 0
edell yty
tt una</w>
ka i</w>
edell een</w>
saa ta
al ka
kunn i
nn en</w>
toimi a</w>
r uu
jo ten</w>
f f
ja lla</w>
sa man
c h
nn ut</w>
v issa</w>
min iste
L I
neuvo sto</w>
kaik en</w>
talou den</w>
L uul
it u</w>
y s</w>
S uo
tu kea</w>
lää kä
tu ke
en i
hin tään</w>
la u
k ki</w>
kerto mu
ma tka
e stä</w>
isi mme</w>
b a
nte ki
.... ....
o ista</w>
mene tel
d an</w>
ma t
mm en
vi e
M istä</w>
to rj
suu re
ti etty
päivä n</w>
m el
tarka stel
es ite
an ne</w>
ku va
o ni
nä iden</w>
merki ttä
mä ssä</w>
il ta</w>
tu on
vall an</w>
kau p
s ul
lain sää
an to
me itä</w>
onn istu
en muka
koske vien</w>
ra jo
yh ti
valti oiden</w>
kuu ssa</w>
an ko</w>
t ro
te itä</w>
tieto jen</w>
L e
puh ua</w>
perustamis sopimuksen</w>
sisä ll
valti on</w>
tuo tan
lä hd
mis ta
P er
las ke
to inen</w>
vä hintään</w>
Ka ts
e ss
I l
mu ita</w>
tapau ksessa</w>
teke e</w>
mi ksi</w>
tu nte
pro se
rak enn
b o
teh ty</w>
y ksi
ti en</w>
kau ppa
ni me
alu een</w>
kuiten kaan</w>
mp pan
l e</w>
suo ra
hall inn
ka s</w>
kaik kien</w>
i ri
1 6</w>
a si</w>
p öy
e lle</w>
jat ku
ver o
koske e</w>
Jä sen
eh kä</w>
alu eella</w>
il e
uu den</w>
Tu o</w>
kun ing
yksity is
sta n</w>
suo s
k kau
o on</w>
1 3
päätö s
lop pu
joulu kuuta</w>
er a
s iten</w>
teh nyt</w>
Hän en</w>
itett ä
st ään</w>
ky se</w>
v yy
H uo
I I
t su
V uo
vi lla</w>
K es
te ell
K err
ed istä
A se
kun ta</w>
vaih to
neuvo ttel
nu mer
U S
mise t</w>
hyö dy
ä i
J A</w>
M eillä</w>
r ei
mei lle</w>
tarv itse</w>
poi kke
a mme</w>
suu nta
te oll
hu i
tilan te
en ne
tu ki
tarp ee
T Ä
parlamen tti</w>
ai van</w>
1 8</w>
esi merkiksi</w>
ma l
vo isi</w>
itett u</w>
e r</w>
s si
elin tarvi
men ne
laus u
pahoi llani</w>
H e
asi an</w>
is in
ik ka
halu aa</w>
ko ti
in i
e lla</w>
py sty
asi aa</w>
ol a
jo ku</w>
A L
s opi
ist ö
tule va
S itt
toi vo
määrä y
sääd än
mei llä</w>
i ke
ystä vä
ra por
E N
vai he
men ee</w>
kann alta</w>
D i
yhte en
kiinn i</w>
U s
komite an</w>
o u
liitty vät</w>
uud istu
lainsää dä
het ke
it in</w>
ni istä</w>
si ksi</w>
1 4
v est
ol in</w>
työ nteki
Ku ten</w>
Tied ä
Si inä</w>
len to
kol me</w>
säh kö
ar i
van a</w>
miljoon aa</w>
täytäntöön pano
te ille</w>
oike ud
k en</w>
myö nn
nouda tta
ll isia</w>
kuulu u</w>
halu at</w>
ist ää</w>
tu sta</w>
ta li
in in</w>
rii ttä
it än</w>
sel vi
tuo tteiden</w>
pää stä</w>
ta kia</w>
vi est
itt el
ett o
pi an</w>
seuraa vasti</w>
vahv ista
20 10</w>
pi d
u hte
vel vo
Sitt en</w>
ist i</w>
nn in</w>
ö l
M aa
tehtä vä</w>
r o</w>
katso o</w>
ain e
ttel e
ku mppan
ko lle
ai kaan</w>
ett e
li t</w>
saa vu
ulo s</w>
kai ki
ku inka</w>
an sa</w>
nähd ä</w>
tul i</w>
il o
yhd en</w>
val ta</w>
hel po
ke stä
jä ä</w>
il tä</w>
R ans
var masti</w>
jäsenvalti on</w>
käy tö
r a</w>
voi mme</w>
myön tä
yhteisö jen</w>
a va
lain säädän
oi lle</w>
an te
he ti</w>
nä ke
O N</w>
on i</w>
ss i</w>
euro a</w>
tapahtu i</w>
vii me</w>
ole vien</w>
S itä</w>
tta in</w>
laus el
palvel u
ta p
Sa ks
tarvi tta
c o
ttu jen</w>
ton ta</w>
yrity sten</w>
in ti</w>
ä kin</w>
saa ttaa</w>
en sa</w>
Ku inka</w>
l uul
ri t</w>
iste l
ki in
arvi oi
kilpail u
i mme</w>
M e
is taan</w>
muu ta
kol ma
Ka t
tte ko</w>
T er
yks in
vapa u
p in
1 7</w>
mmä is
E K
ko tiin</w>
k iste
E S
1 6
men i</w>
ni mi
I s
jäl je
le hd
o pa
ha va
jo u
ty nyt</w>
mpi a</w>
vel voi
kulu tta
E L
d el
viranoma isten</w>
käyte tään</w>
K e
va ar
Kats o</w>
on ko</w>
v ään</w>
uudell een</w>
T U
lää ke
j ar
i vät</w>
toimin nan</w>
s ken
min ulla</w>
oi t</w>
H u
Si ksi</w>
näy ttää</w>
k ri
tapahtu u</w>
2 1</w>
komissi olle</w>
H ar
t kin</w>
markkin oiden</w>
valvo nta
j ia</w>
ta l
ää llä</w>
kas v
a g
te ttiin</w>
kerto a</w>
I M
an tu
Yhte is
määr itel
ett aa</w>
3 1</w>
lää kke
il u
yle is
pä in</w>
na sta</w>
per us
K or
ol ette</w>
it ään</w>
A nn
maks u
par anta
ker taa</w>
isi lla</w>
per he
jo ista</w>
tt uu
sin usta</w>
p re
tu en</w>
mahdoll ista</w>
to tta</w>
isen ä</w>
u va</w>
ai e
neuvo sto
pit kä
ohjel man</w>
tta vasti</w>
to isen</w>
sa maa</w>
S ano
Yhd isty
ä si</w>
vuo si
y stä</w>
päi vä</w>
C o
ann a</w>
7 .
d u
kul je
kirj an</w>
e l</w>
mie tin
ttu ja</w>
ss in</w>
alu eiden</w>
Nä mä</w>
kä r
laa jen
ker ro
turvallisuu s
mä stä</w>
E tkö</w>
3 0
I r
kal ta
c e</w>
väl ttämä
pi dä</w>
voi da</w>
nä ky
S o
P al
2 4</w>
tä vät</w>
1 00</w>
päätös lausel
itu sta</w>
he itä</w>
uu si</w>
esi in
pää tty
201 1</w>
he in
päivä ä</w>
ik in</w>
K ol
tehd yn</w>
y ä</w>
l uu
olo g
ka ver
liik ku
ra ti
o man</w>
Kä y
vest o
tarka st
tul e</w>
no r
itt u</w>
os in</w>
vä ksi</w>
ensimmä isen</w>
ta mmi
eri la
jäsenvalti oissa</w>
jo utu
to is
5 .
suo r
alu e
oll en</w>
12 .
tta maan</w>
min usta</w>
mise ssa</w>
a vi
E r
toimenpite et</w>
se ur
a t
sovell etta
in tään</w>
lu pa
M on
2 2</w>
Men e</w>
Yhd ys
n sä</w>
hi en
u no
pa ikka</w>
ha a</w>
sin ne</w>
K uul
4 0</w>
Ol in</w>
tarp een</w>
asian muka
si lloin</w>
ku r
isuu s
toimi valta
mei dät</w>
E t
a vat</w>
suo ri
1 9</w>
h to
jo ka
min uu
kä y</w>
k ro
gi an</w>
oikeu dell
Halua tko</w>
huo ne
ku tsu
ss el
L U
joh on</w>
ha kemu
käy nn
kokona is
ymmär r
vi en
j ille</w>
e taan</w>
op u
it sen
lis ää</w>
V ai
K er
vil jel
Nä y
S u
an i
oike us</w>
tied on
erity is
tu ho
e c
var ma</w>
sel v
tt or
Y ksi</w>
o tetaan</w>
lo u
myö he
ö t</w>
puole lla</w>
ktii v
l ei
yh ten
kaik kia</w>
st in</w>
esi tteli
käsittel e
järjestel mä</w>
kyse isen</w>
tuo tann
t issa</w>
et si
ih an</w>
pi dä
h il
tie ty
voi maan</w>
d oll
suo ja
taso lla</w>
to si
S uu
asi oita</w>
os an</w>
Ni in
kse stä</w>
T ur
muu n</w>
uu tta</w>
te ri
aihe utta
lu ettel
is issa</w>
s oi
je kti
B ry
jo sta</w>
Hä ne
tarkoi ttaa</w>
mä ttä</w>
itt e
Y mmär
määr ite
kes äkuuta</w>
f er
lo ka
har joitta
m ole
Se ura
ik en
ki ä</w>
yy n</w>
ist u</w>
en ä
Ol e</w>
inn in</w>
re kiste
lii ke
kolle g
vuu s</w>
kul ttuu
ö ssä</w>
asetu ksessa</w>
han sa</w>
ti laa
ään ty
g in</w>
kuning as
ala kohdan</w>
p u</w>
ss ani</w>
Ai van</w>
l yh
ta kin</w>
tarv itse
näh nyt</w>
e ks
sa anut</w>
koske via</w>
e si</w>
ar vo</w>
no jalla</w>
ryh män</w>
suora an</w>
oikeu ksien</w>
ole massa</w>
ity s
itettä vä</w>
2 3</w>
l ann
ud u
käs ite
2 9
jä t</w>
v utta
d ar
r ö
T äällä</w>
T A</w>
tt aneet</w>
nä itä</w>
ko ssa</w>
tie teell
B o
199 8</w>
ta b
ki in</w>
Va ikka</w>
jäsenvalti ot</w>
k kaa</w>
ty h
y llä
P yy
mm a</w>
per u
sopimu s</w>
uu si
ky ky
ha us
H erra</w>
pöy tä
te ki</w>
valmi s</w>
T yö
tärke ä</w>
I II</w>
pi ir
m ist
P el
in vesto
itt y
lainsäädän tö
tää ltä</w>
Euroop pa
hei dät</w>
ista n</w>
hu ll
vasta a</w>
osa puol
a voi
vaiku ttaa</w>
a b
u ssa</w>
nn on</w>
asia sta</w>
K au
asi anoma
A u
H o
ne u
varmis ta
si den
an al
O S
s ol
T eh
sosiaal i
a maan</w>
teho kka
union i</w>
K A
ver ta
C ar
en intään</w>
työ llisyy
tä vä</w>
ik ku
joi hin</w>
in kin</w>
tu a</w>
te e</w>
pp i</w>
myö nte
aihe utu
k to
v istä</w>
oi lla</w>
k kuu
Par lamen
kse mme</w>
ra ja
to on</w>
ko ke
so r
b er
ta u
viranoma iset</w>
M A
ku s</w>
a jan
M enn
Kat so
kahd en</w>
ks .</w>
itett y</w>
työ sken
koske vista</w>
Kerr o</w>
ol ta</w>
mpä nä</w>
I tali
2 -
so vi
ksi lle</w>
de llä</w>
hi e
p i</w>
s on</w>
P y
vapa a
koh taan</w>
tavoi tte
kse si</w>
pit änyt</w>
kau an</w>
EU RO
vaatimu kset</w>
ku ka</w>
U KS
tä n</w>
Y le
n tä</w>
sel ke
ni m
est ä
sta n
ky l
kol man
O ike
m isten</w>
valmis ta
toimin taa</w>
mis sa</w>
ole va</w>
O PA
poi ka</w>
19 8
9 6</w>
puheenjohta ja</w>
ta hansa</w>
hetke llä</w>
öl j
ki inno
mieh en</w>
yhte isen</w>
sa malla</w>
Euro opa
di o
- Ei</w>
A ja
er ä
kse llä</w>
alku perä
i ksi</w>
Kan sa
maail man
k y</w>
1. 3.
O L
tieto a</w>
ust uo
vä he
- En</w>
is ä</w>
o tettava</w>
si mme</w>
oike assa</w>
ni mi</w>
maal is
ko on</w>
or gan
i vat</w>
vi h
toimi tta
maa t</w>
199 6</w>
Tä tä</w>
ei hin</w>
pit i</w>
si a
ity s</w>
os oi
r en
d y</w>
R A
is u
ku t</w>
pel a
Tä stä</w>
pää stö
ttä vät</w>
ed isty
min a
kas va
us in</w>
tei dän</w>
se t</w>
2 8</w>
voin ut</w>
tä nä</w>
kaik issa</w>
esi ttää</w>
nope asti</w>
M yö
syn ty
tammi kuuta</w>
I h
er in</w>
am pu
käs itel
ky mmen
vi ik
isuu dessa</w>
mu kana</w>
D e
kuu kauden</w>
to uko
sa ar
is ti
myöhe mmin</w>
na t</w>
seuraa vaa</w>
ö iden</w>
Halua isin</w>
raa tt
9 8</w>
energi a
suu ri</w>
Neuvo ston</w>
S I
en s
kir ja</w>
it kö</w>
Mi el
ko ne
men na</w>
jö iden</w>
v y
kap pal
ise llä</w>
V enä
miel estäni</w>
199 7</w>
pu r
S y
L o
kaik kea</w>
isi mman</w>
p yö
I tä
tilan ne</w>
ala kohdassa</w>
os oitta
t sa
yhteistyö tä</w>
Bry ssel
in ko</w>
E M
va lla
lu ku
itt e</w>
voi t</w>
ko ulu
to den
EURO OPA
d ia</w>
ttä nyt</w>
c i
te lla</w>
pää ll
oll eet</w>
eh to
4 -
apu a</w>
m l</w>
V Ä
ti iv
sa i</w>
2 8
lle si</w>
ö s</w>
I N</w>
osuu s</w>
uu sia</w>
hallin to
anne taan</w>
tu llut</w>
ri en</w>
ni a</w>
johta ja</w>
A f
ku kaan</w>
kysymy s</w>
Va in</w>
p uun</w>
va ksi</w>
va lla</w>
6 0</w>
EUROOPA N</w>
lähe sty
su ku
vuo ti
t is
5 -
työ tä</w>
Sin ulla</w>
ei l
ma issa</w>
Vo in</w>
Si itä</w>
markkinoi lla</w>
vaikutu ksia</w>
par ha
ma ll
hein äkuuta</w>
ra t</w>
al e
to si</w>
ve si
lis ää
yksityis kohta
ka h
raha a</w>
pä ä</w>
mar ras
re a
it o</w>
hoi ta
ain eiden</w>
toimenpite itä</w>
ta var
ju ttu</w>
laa ju
ta isiin</w>
9 5</w>
to de
ka sta</w>
us ko</w>
lainsäädä nnön</w>
mo o
ik inä</w>
u m
M Ä
menne ssä</w>
siir ty
ki er
markkinoi lle</w>
itt i</w>
ja lle</w>
tan a</w>
koko u
en kin</w>
a inen</w>
Menn ään</w>
opimu ksen</w>
ki inte
hy vät</w>
LI IT
kaup an</w>
hoi don</w>
a lle
va ara
k r
ke ho
tarkoitett u</w>
ole vat</w>
pa per
kesku span
tod istu
kel po
yhten ä
kuul e
sisäl tää</w>
menettel yn</w>
2 9</w>
H en
st ää</w>
si jo
pi de
jo pa</w>
velvo llisuu
na u
mahdoll isimman</w>
pu oli
m o</w>
laus un
käyttö ä</w>
Odo ta</w>
O ta</w>
mi tta
halua isin</w>
vuu den</w>
s er
ke in</w>
h un</w>
yks in</w>
ik kaan</w>
use in</w>
loka kuuta</w>
Hy vää</w>
stu u</w>
yksin kerta
kaiki lle</w>
A lu
de lle</w>
na inen</w>
la inen</w>
B ar
oikeu sa
ti lle</w>
t ri
E hdo
ett i
muu ttu
u mu
ty yty
tappa a</w>
ongel mia</w>
syy s
toimin ta</w>
eläin ten</w>
kau pa
P or
oikeu den</w>
myy nti
aa mu
kehity s
syy tä</w>
tu ll
aja ttel
ede llä</w>
itu kset</w>
tul isi</w>
Lä hd
sis ään</w>
lu kien</w>
osa a</w>
elin ten</w>
häne stä</w>
Tiedä tkö</w>
si e
F ran
on kin</w>
määr än</w>
En si
ku ollut</w>
ssa si</w>
H an
odo ttaa</w>
2 6</w>
ett u
tu on</w>
ll isessa</w>
ma ton</w>
el e
va tko</w>
jäsen et</w>
v e</w>
is istä</w>
ris ti
ja an</w>
lähte ä</w>
vä hi
199 5</w>
ääne sty
yhd enmuka
- Mitä</w>
en sin</w>
mo in</w>
os uhte
ala an</w>
k kaan</w>
inti a</w>
ver en
ki itos</w>
ante eksi</w>
py st
ette ko</w>
hen g
V er
mi lle</w>
ET A
2 7</w>
tä t</w>
käy ttö</w>
ttö myy
Hi en
tehd ään</w>
Jo h
v ed
st ru
pre siden
Toi vo
kse lle</w>
tuo mi
ni ihin</w>
toim et</w>
han kin
potila illa</w>
liik ke
tta vaa</w>
op pi
ti en
in an</w>
palvel ujen</w>
9 0</w>
kansala isten</w>
pan e
i ttää</w>
kor ja
hie man</w>
arvo isa</w>
tiedo te</w>
pit eiden</w>
E si
201 2</w>
le ik
hu hti
ko a</w>
ud un</w>
organ is
ll o</w>
si ltä</w>
ol osuhte
ku i
tki mu
direktii vi</w>
mu ista</w>
kan san
varo jen</w>
van sa</w>
ratka ise
ensimmä inen</w>
valvo n
H el
sto jen</w>
ta ulu
de ksi</w>
en ne</w>
liitty y</w>
el in</w>
ta vo
valti on
lu v
laa d
maa ilman</w>
al kaa</w>
r ikko
tu t
var maan</w>
ih miset</w>
t ol
M o
va u
pyr ki
9 .
ihmis iä</w>
hyväksy ä</w>
hä iri
R uo
jä te
P it
ver kko
H er
itett iin</w>
asi at</w>
mer kin
järjest y
itu ksia</w>
se ka
mme ko</w>
hai tta
al i</w>
U U
di t</w>
l kää</w>
n eiden</w>
9 7</w>
it un</w>
tu ki</w>
Ta i</w>
kala stus
torj u
B el
ain oa</w>
ke mi
L öy
ni men
puol u
muu ttaa</w>
hti a</w>
T -
li ha
la h
ä iti</w>
- alu
i ko
it usten</w>
p iste
min kä</w>
an si
pa itsi</w>
ä it
p en
I L
ti on</w>
vä nä</w>
ki t</w>
Y N
otta en</w>
valio kunnan</w>
g ia</w>
mise lle</w>
a sen
C a
E span
op er
im et</w>
valvo nn
toi me
si v
tarvi taan</w>
Häne llä</w>
seuraa vat</w>
ju h
kke iden</w>
perä isin</w>
ti lin
K en
vuu tta</w>
huo menna</w>
demok raatt
Tar vit
jan a</w>
LIIT E</w>
saa t</w>
Ra ka
O N
tö ntä</w>
eh kä
tu ista</w>
Bryssel issä</w>
201 3</w>
täy dell
su r
k is
IN EN</w>
sää de
kuulu vat</w>
pa kkau
ka t</w>
ta iste
oi min
sa ll
v itse
huoma utu
ttö mä
1 1.
sa an</w>
vasta ano
stan dar
1 .</w>
pare mmin</w>
vaikutu kset</w>
Ensi mmä
järjest ö
tuotan to
hei lle</w>
koh te
hd ään</w>
in jekti
miel i
varmis taa</w>
C -
1 -
ite tään</w>
s o</w>
voi taisiin</w>
ver ra
to ista</w>
pa ikko
touko kuuta</w>
Ase tuksen</w>
g ra
0 -
ar ia</w>
valti o</w>
talous arvio
politi ikka</w>
ty ttö
hyvä ä</w>
e sti</w>
sää detään</w>
tuomioistu imen</w>
tarvitta essa</w>
in su
e hd
paika n</w>
luo tta
yle ensä</w>
kansall isten</w>
it on</w>
ongel ma</w>
kes k
sel västi</w>
maalis kuuta</w>
tty ä</w>
hel v
päivä stä</w>
ann ut</w>
jat kaa</w>
ke ino
keh itty
1 ,
va taan</w>
voi massa</w>
tei dät</w>
la a</w>
oikeu ksia</w>
P oi
y din
ha an</w>
tarkoitu ksena</w>
Muu t</w>
joh taa</w>
union issa</w>
8 0</w>
y ssä</w>
tarka stu
saa vat</w>
huo no
tyyty vä
talous arvi
pyy tää</w>
al a</w>
ite lla</w>
vi ttä
ajo neuvo
a ktiiv
kulu essa</w>
ke in
g o
Y H
ko kemu
Y T
K E
pare mpi</w>
tt o</w>
sin a</w>
I sä</w>
tuo te
jälje mpänä</w>
saa vutta
kol me
ks in</w>
vahviste taan</w>
tietty jen</w>
ity ksen</w>
Luul in</w>
usta a</w>
is issä</w>
suunta vii
o sta
kohd istu
Jäsen valtioiden</w>
mahdoll isuus</w>
Jo o</w>
tarjo a
isi ja
toimi i</w>
väl tä</w>
yrity ksen</w>
ett ää</w>
ann ettava</w>
mietinn ön</w>
Euroopa ssa</w>
p po
si vat</w>
P e
f o
vahv istaa</w>
tt ien</w>
na ssa</w>
j alo
ih misten</w>
n tä
koh ti</w>
kki ä</w>
utu a</w>
politi ikkaa</w>
Ä iti</w>
lä pi</w>
R au
7 5</w>
toi hin</w>
mpä ä</w>
a l</w>
vä est
m et</w>
na isten</w>
lyh y
yle iss
ri in</w>
e ti
nte r
VA L
oh ja
K un
o mina
li uo
L ope
ka ssa</w>
7 0</w>
pää se
ett en</w>
syy stä</w>
3 4</w>
a -
yksi ttä
sovelta mis
vi er
is itko</w>
s ar
P an
o jen</w>
vähen tä
p in</w>
raken ne
hel mi
2 5
ko or
vah ing
Tä lla
vien ti
vä h
mer i
B a
kunn es</w>
ehdotu ksen</w>
os oittaa</w>
van he
toimi en</w>
ksen sa</w>
ain akin</w>
marras kuuta</w>
esi in</w>
tte kö</w>
10 .
a kaan</w>
alu eilla</w>
kan i</w>
g e
sa ma</w>
sää nte
ll eni</w>
ti on
oi re
raha t</w>
vaikutu s</w>
ri lle</w>
EU :
Ku kaan</w>
ö no
puheenjohta ja
ro uva</w>
jota kin</w>
A R
perust el
g e</w>
tun ti
Ky se
f or
ty ttö</w>
i de
tava ta</w>
kse ksi</w>
ma ista</w>
vara in
k lo
u t
9 2</w>
j alta</w>
pää tel
in sa</w>
ko to
n ai
L uu
ks istä</w>
tas on</w>
ti i
aihe uttaa</w>
asi oiden</w>
muutta misesta</w>
mu kau
joh tu
k it
in ta</w>
po ista
J uu
par i</w>
kan ta
j i
vä hä
käy tön</w>
A m
t re
ö stä</w>
jo ko</w>
ku mo
TÄ MÄ
d ro
Neuvo sto</w>
al oitta
f a
ke i</w>
T y
he del
sääntö jen</w>
liitty viä</w>
E dellä</w>
kyse essä</w>
tapau ksissa</w>
e ur
to isi
T O</w>
viranoma isen</w>
erity isen</w>
Voi t</w>
ryh mä</w>
mi est
pol ku
H al
tti vat</w>
anto i</w>
ki inti
mu istu
ehdotu s</w>
ta pa</w>
ma ase
ko mp
to s
aie mmin</w>
suunn ittel
te ll
ke ä</w>
ll istä</w>
tarko itus</w>
ta voin</w>
ar von</w>
kii ttää</w>
pää ttää</w>
Pu hu
tu lli
puu ttu
ens isija
To tta</w>
ter ro
jä rke
E -
nel jä
m äni</w>
ver ko
kke en</w>
Tä llä</w>
pu hd
läh tö
väl isen</w>
komite a</w>
tt unut</w>
O nn
luotta mu
........ ........
huhti kuuta</w>
E lä
O li
tied än</w>
ki lo
ee seen</w>
0 ,
jo s
löy tä
r y</w>
jaks on</w>
ra hoi
T un
v en</w>
e hte
Aja ttel
liitt een</w>
strate gi
lu van</w>
st er
mie he
r an</w>
maa talous
toden näkö
yhte en</w>
saa tta
Pu he
inn an</w>
de stä</w>
haus kaa</w>
syys kuuta</w>
sel vää</w>
suhte en</w>
teke mään</w>
ole vassa</w>
vi ikko
lausu nnon</w>
ty i</w>
k ra
tuomioistu in</w>
r än</w>
sisä llä</w>
iste taan</w>
nä istä</w>
hu oli
epä il
toteu ttaa</w>
ja tka
9 3</w>
S A</w>
mie hi
tek ni
e itä</w>
Teh ty</w>
eni mmäis
Us ko
mu u</w>
ke tään</w>
k liin
I nter
u tta</w>
numer o</w>
n in</w>
jo lloin</w>
tapahtu nut</w>
val tu
m .</w>
tarkoitett ujen</w>
u i
la ista</w>
jo kin</w>
otta matta</w>
ha ke
val uu
ss e
tta kaa</w>
maa han
N or
itt o</w>
ust u
maks a
tu ssa</w>
löy tää</w>
3 3</w>
insu liin
täytäntöön pan
te e
a ko</w>
viik on</w>
i mm
politi ika
ud et</w>
tekn olo
T ai
ss ään</w>
vai kea</w>
te ko
sa an
to nn
V an
s -</w>
Pi dä</w>
st e</w>
määr ää</w>
Tarvit sen</w>
J e
koh taa</w>
kär si
sito utu
kuu lla</w>
T Ö
sil ti</w>
toimen piteiden</w>
P ro
K U
raken ta
2 4
kau ni
h jel
b ud
mur ha
Ol ette</w>
Vä li
anal yy
tu li
edell yttä
säännö t</w>
Tar vitse
tuo ta</w>
tut kin
ohjel ma</w>
tyy li
A N</w>
mer en</w>
oli t</w>
tod iste
Er ity
hti en</w>
Va sta
tun tia</w>
val ko
sääd ö
n ro</w>
sella isten</w>
in ia</w>
- A
mpi en</w>
G e
pain op
c h</w>
hi r
hui ppu
väli aika
tied ät</w>
s y</w>
käyttö öno
8 .
mietin tö
mu assa</w>
T e</w>
lu kuun</w>
huomio ta</w>
luo k
par as</w>
jä ttä
vaihe essa</w>
b b
M er
lle et</w>
3 2</w>
tarkoite tut</w>
Pu ol
ymmärr ä</w>
sovelta mista</w>
järjest ä
Ä ä
arvio inti
ala s</w>
le tko</w>
nte le</w>
viranoma inen</w>
mil jar
elintarvi ke
joi lle</w>
sy rj
a p
B ri
E tte</w>
issa an</w>
oh i</w>
jä ttää</w>
Ky sy
nnö ssä</w>
si i
Niin kö</w>
o ma</w>
S ä
toim i</w>
hallinn oll
j al
jou kko
3 5</w>
sy dä
la isia</w>
ed ä</w>
Ta pa
py sä
use ita</w>
oh j
Jo ten</w>
kaa su
an in</w>
koske vaa</w>
Eurooppa -
I han</w>
h isto
ta ll
maks aa</w>
Ter ve
oike a</w>
m yks
tta van</w>
i an</w>
amma tti
ed istää</w>
Rans kan</w>
N U
tun tuu</w>
a ll
toimin nasta</w>
use a
vaatimu sten</w>
ti u
ko lla</w>
tu g
Ol iko</w>
liik enne
rau ta
3 6</w>
sella ista</w>
laa tu
t kut</w>
s ke
pu oli</w>
tasa vallan</w>
oper aati
A si
hyväksy i</w>
laajen tu
halua vat</w>
ene mm
lä mp
9 1</w>
me istä</w>
uu sien</w>
e ta</w>
kol men</w>
yhd iste
ttömä sti</w>
oi da</w>
on a</w>
luonn oll
val taa</w>
e tin</w>
ol enna
e tel
TÄMÄ N</w>
vä ki
U ni
tarkoite tun</w>
suu n
kki a</w>
etto muu
in ter
luonn on
ik ään</w>
kehity ksen</w>
asi aan</w>
k ään
huo n
maa tt
a alta</w>
Ol i</w>
saa pu
main itt
YH TE
A K
C h
h ti</w>
KO M</w>
vi ksi</w>
häne llä</w>
pi eni</w>
en ä</w>
täytäntö ön</w>
myö hä
K ar
on ut</w>
i lla
tule vat</w>
3 -
men e</w>
pyst y</w>
ä ssä</w>
ee ssa</w>
kaik ki
vii tta
Min ne</w>
ilmo itettava</w>
Ä lkää</w>
st unut</w>
199 4</w>
huoli matta</w>
viime ksi</w>
T alo
u sa
tarpee ksi</w>
tie tä
raho itu
b u
o ja</w>
ma assa</w>
k g</w>
ä hän</w>
k kä
in e
Lope ta</w>
al t
Sa in</w>
väl inen</w>
kunn assa</w>
Miel estäni</w>
vä stä</w>
k l
te tään</w>
C har
muka inen</w>
e tenkin</w>
kustann ukset</w>
vir ka
te illä</w>
puole lle</w>
Jo ku</w>
mi hin</w>
est y
luo ja</w>
a d
sito umu
teho kkuu
myön tää</w>
pel kä
ri ä</w>
ti o
n to
st een</w>
lis äänty
jos kus</w>
mat kusta
kan sa</w>
ky y
kil ta</w>
Min usta</w>
istu s</w>
K ir
Pi dän</w>
määr in</w>
I t
Hy vin</w>
lehd essä</w>
fer en
kii re
al in</w>
va lle</w>
yl ös</w>
ulko puol
vuo sina</w>
Ju mal
ksi lla</w>
myö nne
hoito a</w>
3 5
c he
ilm oitta
la j
M I
liitty vien</w>
lann in</w>
mi kään</w>
nel jä</w>
S ai
so ke
po tilaa
vira llisessa</w>
demok rati
lop puun</w>
kul ta</w>
stru k
D o
M Y
vähe mmän</w>
ku oll
hall inno
P :n</w>
helmi kuuta</w>
liik en
ra joitta
s ista</w>
määrä t</w>
ttä vää</w>
ist ään</w>
r jä
ilm oi
alka en</w>
sano in</w>
N u
het ki</w>
pyr itään</w>
sta ni</w>
Juu ri</w>
tavoitte ena</w>
9 9</w>
T ans
jä r
ty s</w>
pol tto
po issa</w>
tunn in</w>
ulo ttu
S lo
P itä
li e
ett iä</w>
vi isi</w>
t kä</w>
asian tunti
kö yh
m yr
sisäl ty
ä lä</w>
e mb
rekiste rö
Kor vataan</w>
järjestel mien</w>
EY :n</w>
edell yttää</w>
9 4</w>
alu e</w>
jon kun</w>
tutkimu ksen</w>
sisäl tä
4 5</w>
tuo lla</w>
Nä hdään</w>
ks u
vaatimu ksia</w>
myy n
tar kka
aloi lla</w>
sta si</w>
ma tonta</w>
vuoro puhel
perust e
saman aika
var sin
tö itä</w>
A lan
komissi ota</w>
man sa</w>
ist o</w>
4 3</w>
kul j
g lo
Ka ksi</w>
tote utu
ks in
ik kala
mieh et</w>
ol isin</w>
i ll
an sa
is ku
pi detään</w>
ha ki
te emme</w>
e ikö</w>
u ksista</w>
yrity kset</w>
g u
To inen</w>
kansala is
su hta
m pu
valti ot</w>
est ää</w>
a ksi</w>
vaihto eh
KO MIS
yri ttää</w>
te sta
al ha
suo si
hi ili
a kseen</w>
yks il
na iset</w>
si joitta
k -
ra struk
yhteistyö n</w>
KOMIS SI
E s
nuo r
J ul
muu te
ole via</w>
man a</w>
vi ha
maa talo
y lä
ar ma
poi ka
hall ituksen</w>
lä htien</w>
isuu teen</w>
j utu
jä lleen</w>
merk ki</w>
B er
sella isena</w>
Mu ista
s kään</w>
Ää ne
ta -
sääntö jä</w>
L opu
V ir
J os
Si llä</w>
k kä</w>
S c
Raka stan</w>
2 6
nn itel
hoi taa</w>
ha u
tarv itsee</w>
E nnen</w>
miest en</w>
ni ille</w>
Saa t</w>
hal ti
palvel ut</w>
saata villa</w>
esiin ty
k inen</w>
halu nnut</w>
K ai
nu kku
järjestel mää</w>
tä s
us -</w>
t ra
menettely ä</w>
käytettä vissä</w>
kansall isen</w>
sa ttu
E ikä</w>
e tään</w>
parlamen tille</w>
ttä mään</w>
nä yttä
varmis tettava</w>
yhd en
lii kaa</w>
hyvä ksi</w>
tan i</w>
mu s</w>
kki en</w>
histo ri
ala inen</w>
järjestel y
tulo a</w>
täy den
viest in
S te
en si</w>
tte ja</w>
Hien oa</w>
ise mmin</w>
2 7
ö itä</w>
g een
na a
perustu u</w>
ku oli</w>
vä ssä</w>
koro staa</w>
Saks an</w>
Por tug
ssa kin</w>
ma ni
la in</w>
toimi in</w>
torj un
sija an</w>
vi e</w>
ter ä
ministe ri</w>
eur on</w>
oi tan</w>
mu ihin</w>
k re
isen aan</w>
tien nyt</w>
kun tien</w>
Yhteis ön</w>
teri aal
l yö
q u
väli ttömästi</w>
kuu kau
vuo si</w>
Alan ko
aloi ttaa</w>
suu ri
sin nä
itett y
it y</w>
mon i</w>
julk isen</w>
muka iset</w>
lähe llä</w>
Myö s</w>
San o</w>
mahdoll isesti</w>
lämp ö
luo nte
uu t
I -
si in</w>
o te
vuo teen</w>
Te l</w>
mu nu
saa daan</w>
o staa</w>
kohd at</w>
ain e</w>
1. 4.
sa moin</w>
uud et</w>
E D
ran s
ro h
kai kilta</w>
v isi
- -
min uun</w>
oikeu tta</w>
s al
än ä</w>
sovel taa</w>
isuu desta</w>
Di rektii
siir r
Toi von</w>
as etta
sella inen</w>
yhte inen</w>
iste ttava</w>
o mista
eri ko
Tar koi
Va i</w>
4 8</w>
Ol etteko</w>
vai hd
Vi i
ist on</w>
toimi elinten</w>
suhte essa</w>
pyy tä
minuu ttia</w>
to r
ist ön</w>
esite tään</w>
kysymy ksiä</w>
sta vat</w>
op etta
L A
sella isen</w>
kaik ista</w>
20 0</w>
ll isiä</w>
har vin
Si ellä</w>
iss ani</w>
jäsen ten</w>
neuvosto lle</w>
ett ujen</w>
I V</w>
ett ua</w>
en kä</w>
ain een</w>
in a
itetta vasti</w>
tu nne</w>
ken e
p il
ku or
kuu llut</w>
isi ksi</w>
M el
te eni</w>
KOMISSI O</w>
sella isenaan</w>
p ikku
jon kin</w>
is kel
munu a
am mu
K Ä
organis aati
vaa di
sel vä</w>
tilan teen</w>
k än</w>
kan ssasi</w>
mi kro
to ri
Ol isi</w>
ke hy
suu rin</w>
koko on
val tuu
oi men
se itse
paika lla</w>
6 -
rä jä
Ymmär rän</w>
ke e</w>
s oittaa</w>
säil yttä
4 9</w>
ki la
Toivo ttavasti</w>
edellyty kset</w>
arvo t</w>
ssa mme</w>
d er
tty jen</w>
st us</w>
ann on</w>
met sä
to isin</w>
her ä
uni o
kka a
tab l
lähe s</w>
de staan</w>
Lä he
L ää
tto a</w>
J EN</w>
to i</w>
2 ,
sovel tu
ist ö</w>
varo ja</w>
har joi
men ta
en päin</w>
tu jen</w>
sopimu kseen</w>
pi ene
kuu kautta</w>
ker ra
kerr o</w>
ell inen</w>
ett et</w>
anta nut</w>
ss opimu
jö itä</w>
anno s</w>
- Se</w>
ra a</w>
Tä y
eil en</w>
inn ut</w>
ste lla</w>
Parlamen tti</w>
van i</w>
- Hän</w>
pu itte
nor maal
b an
tulo ssa</w>
tyy ppi</w>
yte tään</w>
so tila
neuvottel u
it s
teke vät</w>
ma ito
on sa</w>
P ol
tuon ti
YHTE IS
M ene
ir ti</w>
mietin tö</w>
va sto
T eidän</w>
kil tti</w>
3 7</w>
la sten</w>
yrity s</w>
ÄÄ R
kun kin</w>
st ön</w>
varmista miseksi</w>
Seura a
oi d
esi m.</w>
elä i
te istä</w>
ll on</w>
ala a</w>
tuo tteen</w>
EK P</w>
kke et</w>
A mer
kau s</w>
ed i
U N
mise ssä</w>
tuo tteet</w>
sano o</w>
suure mpi</w>
O T
l ista
E d
koo di</w>
H et
pu a</w>
seura a</w>
Hal usin</w>
ty ön</w>
rea kti
L as
pp o</w>
mi llä</w>
P oli
main itun</w>
st u</w>
t ke
Voi mme</w>
Euroop pa</w>
mie stä</w>
inf rastruk
tuotann on
Vi ime
Pää tö
Tied ät</w>
Af ri
par antaa</w>
kertomu s</w>
p ö
p os
tie tenkin</w>
is -
verra ttuna</w>
perust us
val ehte
Mi lloin</w>
mahdollisuu ksia</w>
katso a</w>
parlamen tissa</w>
r un
kat so</w>
asia kirjo
D a
keski tty
bud j
määri ttä
ti lla</w>
ää nnö
jäsenvalti oille</w>
ho ito</w>
l a</w>
käsitel tä
is elta</w>
K on
M ÄÄR
is o</w>
vir he
Sa anko</w>
vo jen</w>
sa ta
pä te
hallinn on</w>
d istu
se kto
ll iseen</w>
na an</w>
per uu
N -
lisä tä</w>
Jo tta</w>
ma teriaal
h ön</w>
ä sti</w>
sopimu sta</w>
kuul u</w>
hyväksy nyt</w>
sinnä kin</w>
ja ka
M ihin</w>
kon feren
val in
aihe u
8 -
jäl j
doll aria</w>
muu ten</w>
menettel y</w>
ks e</w>
tuo nnin</w>
saa tu</w>
turvallisuu den</w>
muka isia</w>
UKS EN</w>
säännö istä</w>
pa a
tu h
3 9</w>
e g
myö skään</w>
x emb
O kei</w>
I D
nn ä</w>
muka ista</w>
pa kko</w>
tta minen</w>
isty ö</w>
mä ttö
an e
hy vältä</w>
vara sto
sella isia</w>
t ista</w>
k kää
ih o
pal ja
lle kin</w>
L issa
4 2</w>
ko vin</w>
työnteki jöiden</w>
va la
riippu matto
moni a</w>
rii ttää</w>
muuto ksia</w>
M c
U n
halua mme</w>
ten sa</w>
nai mis
utu u</w>
maailman laaju
koske vasta</w>
päi vään</w>
Kes ku
ten a</w>
U u
kehity stä</w>
my s</w>
oikeud et</w>
ta ar
kulu ttua</w>
et kö</w>
Tu tkimu
ansi osta</w>
Jo ka
Lissa b
ne ita</w>
ol isivat</w>
ell aan</w>
7 -
V I
T ee</w>
P oh
jäsenvalti ossa</w>
Y T</w>
8 7</w>
it ut</w>
uni oni
te it</w>
te r</w>
tyy ppi
lo ma
Yhdys val
ain eet</w>
pi iri
Y K
vi era
omina isuu
te li
g in
arvo a</w>
ko i</w>
vähi mmäis
man i</w>
ty ttä
Lu xemb
Vo inko</w>
P P
prosen tin</w>
sopimu s
merki ttävä</w>
markkin at</w>
e ssaan</w>
Ne w</w>
käytö stä</w>
o in</w>
kansainväl isen</w>
pa a</w>
yhtey ttä</w>
tapa a
van ha</w>
iti t</w>
kä vi</w>
P as
tarjo us
koske vassa</w>
k ku</w>
enna kko
u ksena</w>
lu etel
vi in
0 1</w>
henkilö kohta
ohjel mien</w>
kulje tu
is iko</w>
varo va
Kes ki
pito isuus</w>
alle kirj
kymmen en</w>
Mi c
si hte
ta an
si vu
pa ikka
henkilö iden</w>
kysy ä</w>
ust us
te ttävä</w>
avoi muu
Us kon</w>
ent istä</w>
ran ga
todell akin</w>
han ne
lu o</w>
o ne
Venä jän</w>
Hy vä
usko a</w>
Kä s
N y
o f</w>
d än
8 5</w>
jatku vasti</w>
l ik
vi edä</w>
yy s
n tö</w>
el ää</w>
s op
tutkimu s
Sano in</w>
C O
kann an</w>
ity stä</w>
kan ssaan</w>
uudell een
ste taan</w>
käy dä</w>
aiko o</w>
sopimu sten</w>
g issa</w>
va jaa
z z
yö tä</w>
lle mme</w>
sija itse
su hd
tuo tteita</w>
unio niin</w>
kiin ni
ta ju
ra joi
kerto i</w>
kerto nut</w>
vaike aa</w>
lla kin</w>
pas ite
huoma ttavasti</w>
M ER
ympärist ön</w>
Ge or
f en
puitte issa</w>
merkity stä</w>
hä tää</w>
ajo neu
san onut</w>
ja u
hin ta</w>
tavoi tteiden</w>
pa i
ku va</w>
päätö ksen
IS ET</w>
I A
Tä hän</w>
st on
t h
kir jat</w>
raha sto
vastaa vat</w>
ala kohta</w>
sa isi</w>
kai ke
säänte ly
in g</w>
viljel i
te tta</w>
mie hen
presiden tti</w>
var ust
tta isi</w>
väär in</w>
o ri
tulo kset</w>
Joh n</w>
joh to
Lopu ksi</w>
ilo inen</w>
utu nut</w>
u mer
hall itus</w>
Tul en</w>
sääd etty
yh tä
J O
na apu
y llä</w>
tasa paino
väl istä</w>
Nä iden</w>
tä mme</w>
va ki
lausun to</w>
vi ent
luv un</w>
o maan</w>
nn y
TE L
ve to
h taa</w>
työ paikko
mietinn össä</w>
oikeud en
aja tu
ole maan</w>
ttee seen</w>
Pyy dän</w>
kon a</w>
VA T</w>
ha t</w>
hi u
ann etta</w>
si r</w>
maa talouden</w>
r e</w>
6 5</w>
va al
IT Y
koh tuu
iste ttu</w>
vaikutu sta</w>
elä mä
u kse
asetu ksella</w>
19 7
6 8</w>
il i</w>
mon ta</w>
terve ys
ruu mi
lop ettaa</w>
tied ä
al is
koh tel
Ruo t
jäl ke
yksi miel
N A
yhti ö
pelkä stään</w>
ai ku
TA R
sen i</w>
VA N</w>
me sta
ase te
kan ssani</w>
taloudell isen</w>
ystävä ni</w>
ti mme</w>
ty jen</w>
a tt
pa an</w>
it sen</w>
R oma
yty y</w>
mi lla</w>
toimin taan</w>
ko mis
Pi dä
enn y
päätö kseen</w>
kolleg at</w>
talous -</w>
ik ku</w>
ken ut</w>
nnö stä</w>
yhd istel
hoi do
W i
ro s
van kila
saa tava</w>
vira ston</w>
kyse isten</w>
sa se
po nn
uu s
vapa utta
asia kka
vi llä</w>
kokona an</w>
Ma ks
tarvi ttavat</w>
onn ettomuu
ete enpäin</w>
joi takin</w>
pää ttä
ni illä</w>
ase en</w>
S A
sa man</w>
P ÄÄ
y tä</w>
korke a
muodo ssa</w>
n en</w>
ed el
ta ri
kke jä</w>
käytä nnön</w>
nn än</w>
T il
yttä vä</w>
R E
o sil
ulko puolella</w>
Tu nn
tu oll
ro ko
käyte ttävä</w>
yh tään</w>
tapa a</w>
isyy s</w>
pa ke
ty ssä</w>
kolman sien</w>
an d</w>
st ot</w>
mu ille</w>
a gen
kilpail un</w>
U T
lle en
T een</w>
yhteistyö ssä</w>
U no
kan taa</w>
5 5</w>
ministe ri
suori tta
tarkoite taan</w>
jäsenvalti o</w>
kokou ksessa</w>
to hto
4 4</w>
8 8</w>
isi tte</w>
ka pasite
en kään</w>
väl in</w>
H oi
c a</w>
Luu letko</w>
AS ET
toim itettava</w>
terro ris
is ina</w>
min äkin</w>
hoito on</w>
tyytyvä inen</w>
saa mme</w>
mole mmat</w>
4 0
tunn usta
sta mme</w>
asi oista</w>
se ko
tta via</w>
L ai
so ker
hä tä
A sia</w>
Men en</w>
Ja ck</w>
S er
E ri
osil taan</w>
kan is
v että</w>
m mu
tote si</w>
koto na</w>
w w
investo inti
pu ite
il mi</w>
ei vä
henkilö stö
esitteli jä</w>
ko jen</w>
ka ta</w>
hal usi</w>
ratkais u
henkil ö</w>
o maa</w>
Min ua</w>
Mi et
uu s</w>
jää dä</w>
U L
Tul kaa</w>
an to</w>
tietty jä</w>
P ys
ole vaa</w>
ino ma
py ri
M al
es itetty</w>
ain eita</w>
vastuu ssa</w>
ol ia</w>
tto masti</w>
est i
var muu
mpa an</w>
tarkoi tat</w>
ar in</w>
te st
te en
mi lla
anno sta</w>
läh että
Itali an</w>
no us
in e</w>
Luxemb ur
hd a</w>
ase ma</w>
il tana</w>
k issa</w>
B u
ala isen</w>
o mis
to iseen</w>
kehity s</w>
M äär
ss uu
te tty</w>
vi ä
st en
c e
ai o</w>
päätö ksessä</w>
arma ko
luo vu
ke t
tte isiin</w>
oi vat</w>
Si ir
YHTEIS Ö
talousarvi on</w>
moo tto
sovell ettava</w>
su la
V au
lainsäädäntö ä</w>
maase udun</w>
vi ite
ista va</w>
yksik kö
4 6</w>
osa ssa</w>
main i
yri ttä
ty tö
p ti
Yr itän</w>
pala a</w>
P äi
bo ra
re ita</w>
säännö sten</w>
osa ston</w>
n an
eurooppala isen</w>
te iden</w>
j ua</w>
ker ä
sa aneet</w>
anno ksen</w>
miel en
ust el
ttee sta</w>
velvoi ttava</w>
me kanis
m m</w>
kaver i</w>
il me
Lissab onin</w>
Puhe en
jo hdo
asia kirja
o s</w>
hy lä
alu eet</w>
yhte isestä</w>
nn y</w>
pää asiassa</w>
nä e</w>
m on</w>
johd on
elä män</w>
ise mpi</w>
tavoi tteet</w>
aal i
isi llä</w>
ilm oittaa</w>
maail massa</w>
e ten
huu me
vi elä
tava sti</w>
itett a</w>
3 8</w>
merk itsee</w>
issa si</w>
ud u</w>
tarka stus
käsite llään</w>
K ul
de r</w>
sääde tyt</w>
yrity ksille</w>
täy ttä
poh ja
he iken
toimenpite istä</w>
puh u</w>
mis s
pas ka</w>
sa tu
n tää</w>
ta h
U se
tälla ista</w>
g ly
Pys y</w>
pid ettävä</w>
tä ni</w>
ko t</w>
al koh
var ti
nn eet</w>
mi ta
ASET UKSEN</w>
ma hdo
tunn ust
a ss
vast usta
kahd eks
jon a</w>
o inti
oll inen</w>
tila sto
pää se</w>
yksil ö
ta tko</w>
t itu
ko ja</w>
G u
le e</w>
tan sa</w>
s kel
hin tojen</w>
en ta
asian mukaisesti</w>
toimi vat</w>
o i</w>
ai vo
kulj etta
199 3</w>
vasto in</w>
ma i
KÄ YT
yhteis kunn
tuleva isuudessa</w>
s sia</w>
t kaa</w>
he vo
rakenne uudistu
si tte</w>
itsen ä
tärke itä</w>
pol y
aa tti</w>
hd in</w>
kä li</w>
moo ttor
S -
muuto kset</w>
kansall iset</w>
lo g
VAL MIS
k ista</w>
mu sta</w>
E C
Ajattel in</w>
di en</w>
tu ksessa</w>
A le
la t</w>
d ino
sisäl tyy</w>
alo o</w>
Ker ro
mon et</w>
ää ni</w>
suunnitel ma</w>
kr ite
ett ia</w>
ki ell
järjestel mään</w>
kuningas kunnan</w>
in st
per inte
li a</w>
in sä</w>
sy y</w>
raha ston</w>
pää oma
va kau
ten i</w>
til annetta</w>
yhte istä</w>
tas o</w>
ta ud
tehtä vä
ma si</w>
lä hen
R u
e kti
kes ken</w>
Kuu ntele</w>
tek st
te si</w>
ni issä</w>
E te
mahdoll isuuden</w>
nimi ttäin</w>
mu l
vuo desta</w>
tä lle</w>
L an
lähe ty
3 00</w>
ar d</w>
vai mo
. .</w>
he istä</w>
5 00</w>
tte ista</w>
tutkimu ksessa</w>
kka asti</w>
men ossa</w>
Luul en</w>
t si
O lit</w>
itä mme</w>
tava ra
Te k
kaiki lla</w>
laito sten</w>
Se lla
isi lta</w>
hy l
miel estä</w>
ymmär tä
miljoon an</w>
välttämä töntä</w>
tilante essa</w>
yhte istyö</w>
pe to
K rei
op iskel
Parlamen tin</w>
riittä västi</w>
ann etta
r ik
Poh jo
onn e
to isessa</w>
Tarvitse mme</w>
hankin ta
ll en</w>
ETA -
hyö tyä</w>
osallistu a</w>
en ko</w>
D E</w>
tu nut</w>
ää ntö
si eltä</w>
is äni</w>
lop etta
e ett
Ni iden</w>
Luo ja</w>
u ku
poliitt inen</w>
jo uko
vara t</w>
teh neet</w>
oike asti</w>
luul et</w>
po istu
ul g
op ol
8 4</w>
no ma
il l</w>
pää lle</w>
v yö
kauni s</w>
N el
La p
isä si</w>
kon kre
ist e</w>
sin uun</w>
l in</w>
H aloo</w>
W al
pi dän</w>
jä nn
ehdotu ksia</w>
kysy myks
he ik
jat ke
määrä raho
ar mei
suojel u
näke my
de s</w>
H ei
U S</w>
osa ksi</w>
keskustel u</w>
ö in</w>
im pi
c a
- Niin</w>
n anta
lap sia</w>
B ro
muo to
säännö ksiä</w>
ll i</w>
valvonn an</w>
8 9</w>
st ro
d ään</w>
pääll y
Val ko
sy istä</w>
alt istu
vä llä</w>
pos iti
4 7</w>
ymmär tää</w>
o itu
E H
muute ttuna</w>
kahd en
seuraa van</w>
varain hoito
L in
yhte ensä</w>
teknolo gi
Ehdo tus</w>
merkity kse
he esi
o tettu</w>
Mi kset</w>
H Y
j ään</w>
mmä t</w>
il u</w>
pää sy
kan s
eivä tkä</w>
pa ikkaa</w>
n ö
A T
ta in</w>
paika llis
ise e</w>
huo mi
5 1</w>
s oli
d o</w>
oh je
ll yt</w>
miehi ä</w>
koko uksen</w>
viime inen</w>
ki lle</w>
or i</w>
katso taan</w>
suojel e
maatalo ustuo
ssa ol
8 2</w>
Ki in
ääne stä
pääll ik
ista minen</w>
luo da</w>
pit kään</w>
kolma nnen</w>
ta po
tä män
tu tu
ta kana</w>
st ua</w>
ttel en</w>
verta ilu
bora tori
S il
li e</w>
Toi mi
ä kään</w>
valio kunta</w>
ttel ee</w>
6 6</w>
periaa tteen</w>
Ki inan</w>
ka do
ed u
ku usi</w>
ka as
It se</w>
vasta ta</w>
re sur
B e
kas vi
E ttä</w>
k k
tar pe
vai vaa</w>
e -
T Y
sa lli
ta vaa</w>
turvallisuu tta</w>
ää kö</w>
vii kolla</w>
Vuo nna</w>
uu destaan</w>
tavar oiden</w>
7 1</w>
Jo ka</w>
kos ke</w>
MY YN
san o</w>
aluee lle</w>
täy ttää</w>
Ha ll
tta essa</w>
saa kka</w>
ett una</w>
il en</w>
pi i
Var o
viikko a</w>
yrity ksiä</w>
las ku
tied ämme</w>
palvel uja</w>
na isen</w>
lähd e</w>
pit kän</w>
hel ve
i e</w>
u ksiin</w>
T I</w>
Ko ko</w>
Kesku stel
t -
Ky se</w>
käytö ssä</w>
osapuol ten</w>
täy si
M an
ku ts
j ani</w>
noudatta en</w>
yhteis kunnan</w>
julka istaan</w>
ai o
pyy nnön</w>
viime istään</w>
järjestö jen</w>
ä kö</w>
vaati i</w>
budj etti
hy viä</w>
jä lleen
mp an
na lla</w>
tu kseen</w>
väli ä</w>
T ei
yle isesti</w>
sijo itus
konkre ett
D u
joh tuu</w>
hull u</w>
sopimu ksessa</w>
ja ssa</w>
ulko ma
taloudell ista</w>
li ite</w>
Y or
men ta</w>
ttel e</w>
k käy
kaik kiin</w>
pyy ntö
en g
ryh mien</w>
ttee ssa</w>
v yn</w>
pi la
M ik
eri t</w>
t t</w>
vi hanne
maa han</w>
tti vät</w>
E i
mel ko</w>
san oit</w>
L ÄÄ
d an
itä t</w>
m oi
Yhdysval tojen</w>
EU -
A b
Kol ma
tutkimu ksissa</w>
merkittä västi</w>
ma ihin</w>
täy tty
ni an</w>
rapor to
koor dino
oll aan</w>
stu ksen</w>
tasa -
H itto</w>
B ra
tta mista</w>
esi lle</w>
pala ta</w>
kuulu vien</w>
era ha
ke stää</w>
vo ja</w>
u ihin</w>
laa di
kä vel
kulttuu ri
p sy
tarkoitett ua</w>
ll in</w>
E I
lä s
strate gian</w>
viestin tä
käy nyt</w>
tode ta</w>
4 1</w>
A ino
ppo a</w>
koulutu ksen</w>
luo tt
sa maan</w>
puol et</w>
Ensimmä inen</w>
kunni oitta
maan tieteell
tohto ri</w>
pää stä
seuraa va</w>
ihmis oikeuksien</w>
la iset</w>
L O
mu tka
pain o</w>
ih misen</w>
poh jalta</w>
P re
e se
direktii vissä</w>
kan ta</w>
hy dro
Pit ää</w>
j alka
väl itä</w>
Ä I
ölj y
Kuu lo
Mi lla
ikko jen</w>
vähen tää</w>
mel kein</w>
laito ksen</w>
päätö ksellä</w>
O sa
tavo ite</w>
te tun</w>
itt i
nn ossa</w>
yl pe
ruo ka
MYYN TI
j eni</w>
las ki
Terve tuloa</w>
hin nat</w>
k kää</w>
isi vät</w>
ku v
il e</w>
käy täntö
o tti</w>
yy li
määräy sten</w>
puol en</w>
er o</w>
g re
siir to
an ti
kor jaa
main itu
r on</w>
pi ka
til an</w>
vakuu tus
8 1</w>
L au
ystä vä</w>
ehkä ise
pöytä kirjan</w>
kauppa a</w>
ustuo mioistu
oikeusa steen</w>
koske vaan</w>
riittä vän</w>
tuo da</w>
ty tä
keski määrä
löy d
A nta
vuo deksi</w>
poli isi
raka sta
Vo itko</w>
ta si</w>
in tä</w>
men et</w>
tek sti</w>
valmis teen</w>
tta miseksi</w>
6 7</w>
ja sta</w>
tode taan</w>
ko ir
S isä
ra h
o st
er e
tervey den
miss ään</w>
YHTEISÖ JEN</w>
ke llo</w>
la isten</w>
tap po
tois aalta</w>
laitt eet</w>
kirja llinen</w>
vuo sien</w>
ri lla</w>
suo stu
c k
U O
B i
osa t</w>
TO IM
vastaa va</w>
5 2</w>
puh ut</w>
julka istu</w>
ris ki
Ete lä
mu ka</w>
ho itu</w>
ra i
prose ssin</w>
lähesty mista
hyväksy tty</w>
osi ttain</w>
Tul in</w>
oma t</w>
tarka sta
la is
ETA :n</w>
kes ä
Si lloin</w>
siirty mä
työsken tel
har k
ih minen</w>
me ta
tä si</w>
0 6</w>
matto mat</w>
au to</w>
C N-
tu ja</w>
it on
inn ista</w>
B ulg
hil ja
lap si</w>
sy rjä
hai ttaa</w>
tied on</w>
Het kinen</w>
huon o</w>
hil jaa</w>
samanaika isesti</w>
vienti ä</w>
teke mistä</w>
ta kaa
ih an
oso itettu</w>
P ala
ho r
h innan</w>
amma ti
mm inkin</w>
vapa a</w>
jäsenvalti oita</w>
alu sta</w>
tu kset</w>
mi lloin</w>
seuraa vana</w>
raho ituksen</w>
a minen</w>
vih re
ve den</w>
ista mista</w>
M ur
va si</w>
k ky
maa ta</w>
pa kka
ma hta
tärke ä
Y ks
ain etta</w>
poliitt isen</w>
vapau den</w>
har jo
J on
p ei
Afri kan</w>
asi oissa</w>
jäsen en</w>
d ut</w>
toi von</w>
jo usta
vi itsi</w>
ty per
valmiste lu
elä ke
iken teen</w>
pa ho
ha ast
yhteisö ssä</w>
kyse inen</w>
V el
utu s</w>
ja -
Mi e
oike astaan</w>
mi käli</w>
Ky pro
o si</w>
ma lle</w>
jälje llä</w>
nn an</w>
raa ka
vi an</w>
ta istel
myönn etty</w>
yhd isty
oikeud enmuka
ll ei</w>
kuu nte
min ulta</w>
Espan jan</w>
w a
ruo kaa</w>
a se</w>
koh tia</w>
no use
arvio inti</w>
työsken tele
O tan</w>
ka to
5 8</w>
Men kää</w>
ulko puolelle</w>
E li</w>
ri itä</w>
poli isi</w>
7 7</w>
yleiss opimu
vahviste ttava</w>
teki jä</w>
päätö stä</w>
lopu ksi</w>
6 1</w>
n sa</w>
pela sta
käsite llä</w>
V e
kertomu ksen</w>
ja ksi</w>
hoi d
hd en</w>
U l
sano en</w>
5 3</w>
de ssaan</w>
Saks a</w>
ell ei</w>
aamu lla</w>
To iseksi</w>
en in</w>
5 4</w>
u pe
raho itusta</w>
Muu tetaan</w>
ER ITY
I A</w>
nä l
ka mer
pää llä</w>
is ikö</w>
hyö ty
toteu tetta
päätö kset</w>
kansala iset</w>
h ö
s än
ede ssä</w>
pyy si</w>
nn ä
elo ku
Kuul in</w>
val o
ti e</w>
E pä
y lle</w>
ja kel
seura uksena</w>
määr ää
i den
p k-
aja t</w>
te in</w>
A ika</w>
dio ksi
lla si</w>
mer kkejä</w>
liiken teen</w>
tava noma
ala isten</w>
Katso kaa</w>
yle inen</w>
kysymy ksen</w>
le y</w>
pää ss
tälla inen</w>
seur anta
saavu ttaa</w>
f os
MÄÄR Ä</w>
kohd alla</w>
ka al
h on</w>
kustann usten</w>
tiedo tus
- S
kui va
yle isen</w>
kan a
suunnitel man</w>
t lan
yleiss opimuksen</w>
st usta</w>
sai rau
hankke iden</w>
puol usta
30 .
J uo
ty ö</w>
199 2</w>
5 6</w>
tervey ttä</w>
ra ali</w>
hy vin
par hai
tu i</w>
vii ta
ta anko</w>
V A</w>
käy nti
nouda tettava</w>
ra jat</w>
perust ee
markkina järjestel
T Ä</w>
3 ,
lap si
lap set</w>
6 4</w>
pa ha
ir e</w>
lopu ssa</w>
r ann
par asta</w>
la isen</w>
kier ro
otta maan</w>
todennäkö isesti</w>
Muista tko</w>
yte ttävä</w>
oimen pite
til a</w>
pal kka
ehdotu sta</w>
tarkoitett uja</w>
Jä rjest
tuotann on</w>
ensimmä isessä</w>
P ä
suu ria</w>
I K
tod ista
Kan na
ti li
O T</w>
tyy pin</w>
B an
myönn että
työ ttömyy
it uo
mo ja</w>
hyvä n</w>
F B
D avi
suun taan</w>
aja a</w>
ss issa</w>
e ista</w>
tt uun</w>
s p
tutkimu s</w>
tto man</w>
pel i</w>
Ri c
keskustel un</w>
hä ir
a ta</w>
llisuu den</w>
al koi</w>
tarkast ustuomioistu
arvioi da</w>
elintarvi kkeiden</w>
ase man</w>
L op
7 2</w>
inte g
risti rii
el ossa</w>
teoll isuuden</w>
arvo jen</w>
muuto s</w>
a kseni</w>
tehokka asti</w>
ta r</w>
in ne</w>
nä ihin</w>
ko heesi
han kki
E S</w>
kokona isuu
potila iden</w>
hy po
mahdoll isuutta</w>
pito isuu
kki in</w>
d assa</w>
ar i</w>
luo ttaa</w>
6 2</w>
L en
7 3</w>
isyy ttä</w>
Tur kin</w>
dell inen</w>
kehittä misen</w>
matto muu
ttel u
ka ta
5 7</w>
mietintö ä</w>
MYYNTI LU
käsittele vän</w>
it ust
Lisä tään</w>
ty stä</w>
HY VÄ
muistu ttaa</w>
ec ua</w>
il in</w>
hankke en</w>
pu na
yhteis kun
ra di
ja si</w>
mahdollisuu det</w>
määrä stä</w>
Y h
pi de</w>
p ikku</w>
epä onnistu
Te in</w>
b e
taloudell inen</w>
ssa in</w>
union ista</w>
au ton</w>
AN TA
järjesty ksen</w>
tuo nn
toimi ttaa</w>
ki ito
yhteis ö</w>
liitty vistä</w>
r yö
ilma is
ed iste
sa in</w>
Vai ku
tuomioistu ime
s .</w>
es itetty
E F
tarjo ta</w>
8 6</w>
siir tä
G i
I C
ku olla</w>
tö issä</w>
ehdo ttaa</w>
pal kki
B ur
S ää
Ai o
ni t</w>
rau ha
Hän et</w>
lääke valmiste
a mer
tervey den</w>
toteu tettava</w>
tyy pp
m u</w>
d yttä
ää t</w>
K I
tul en</w>
ma la
liitt o
inf ekti
kilpailu kyky
Mi ks
ri s</w>
säännö kset</w>
mu ista
met riä</w>
llis ista</w>
ras ka
myy nn
ky sel
p ri
än si
re he
Kol me</w>
hen gen
r en</w>
u m</w>
vo isivat</w>
kul ta
Jumal a</w>
la boratori
Hyvä ksy
te mme</w>
suo je
sa jan
vahviste ttu</w>
pit kä</w>
Näy tät</w>
us kon</w>
t he</w>
tä h
Si ihen</w>
Ja c
koor din
tarjo aa</w>
P S
W a
helv ettiä</w>
pas ki
er inoma
myö tä</w>
ite llaan</w>
Il ma
hd i
hien oa</w>
suhte ell
im i</w>
määräy ksiä</w>
Ymmär rä
lu ku</w>
palvel un</w>
tarvitse mme</w>
VALMIS TE
huole hti
9 -
merk itse
hi mo
sää nnön</w>
u min</w>
riippu matta</w>
pää ssä</w>
itsen sä</w>
P ain
strate g
itu rva
ala iset</w>
vient itu
tonn ia</w>
män sä</w>
HYVÄ KS
saa ttavat</w>
ll isiin</w>
vi iden</w>
än sä</w>
N au
men esty
tiety sti</w>
S t
Q u
Hy vät</w>
par a
hyödy ntä
g h
kirj an
a vaa
matka lla</w>
te ra
mme kö</w>
I so
ver si
henkil ön</w>
f fi
kul ku
L on
soke ri
vyy s</w>
miel est
väär in
mu si
da ar
her rat</w>
o mien</w>
komp ro
aja ssa</w>
kaikki alla</w>
5 9</w>
vah in
lä hi
il ä
hall itusten</w>
p pe
kin ä
katso maan</w>
ratkais u</w>
Is ra
tappo i</w>
San oit</w>
ett eivät</w>
Vuo den</w>
m ite
L E
1. 6.
täy s
valvon taa</w>
käytä nnössä</w>
pa ik
säil y
tö ihin</w>
Niin pä</w>
puheen vuoro
pyy dän</w>
Ka p
Tuo lla</w>
alle kirjo
st äni</w>
vuo dessa</w>
järjestel mät</w>
as ettaa</w>
huol ta</w>
Rau hoitu</w>
ksen ne</w>
yhtey s</w>
päi v
ass osi
g an</w>
vaikutu sten</w>
ken i</w>
her mo
ase massa</w>
ola ito
viranoma isille</w>
Tar ka
muu tettava</w>
vo isin</w>
alu sta
mm o
miljar dia</w>
muuta man</w>
inno vaati
läh ettää</w>
ol u
kanna ttaa</w>
aihe ell
kiel täy
tta misesta</w>
ess ään</w>
si vät</w>
Yhdisty neen</w>
ll isesta</w>
kysymy kseen</w>
tu kien</w>
koko us</w>
toimi el
Uni onin</w>
koske viin</w>
maks ut</w>
YK :n</w>
S EU
ku vi
t issä</w>
yhti ön</w>
julka is
Jos kus</w>
vaihe en</w>
lain kaan</w>
il un</w>
os ana</w>
huole stu
so hjel
A in
ne iti</w>
ka lu
johdo sta</w>
teh tiin</w>
oikeusa sia
i ku
sovelle ta</w>
se p
main ittu</w>
vastaa van</w>
ris ke
av usta
voi maan
k s</w>
le v
määrä tään</w>
1. 2.
la use
ra vin
mu tt
maa sta</w>
sil mä
itt iin</w>
u den</w>
isyy den</w>
ke ll
mu issa</w>
määrite llään</w>
o ttanut</w>
a mmin</w>
o sti</w>
istu ksen</w>
ka ks
vii li
kustann uksia</w>
ker ta</w>
ke stä</w>
P ÄI
mahdollisuu ksien</w>
minuu tin</w>
S yy
nn yt</w>
ikko ja</w>
M or
halua tte</w>
A lo
ajan jaks
g ne
yli ttää</w>
yö n</w>
Onn eksi</w>
o sia</w>
teoll isuus
ka is
te tut</w>
erila isia</w>
amer ikkala
ri kos
i di
pää tti</w>
johd anto
asia kirjat</w>
ver ta</w>
0 5</w>
Se hän</w>
po jat</w>
sisäl tävät</w>
na isia</w>
na is
poh jo
- Olen</w>
Tu nnen</w>
ur hei
ryh mä
nouda ttaa</w>
mi t</w>
tul kin
Tie ty
komis saar
san on</w>
Ir lannin</w>
K aa
Yhteis ö
äit isi</w>
7 4</w>
keskustel ua</w>
ol isit</w>
Il man</w>
tila a</w>
päätö ksiä</w>
os u
anta maan</w>
välin eiden</w>
to ri</w>
infrastruk tuu
G ar
EU: ssa</w>
r yhd
ä ly
it iin</w>
Inter ne
elo kuuta</w>
nu o</w>
perustu vat</w>
sa it</w>
E ivät</w>
g lu
tote aa</w>
2 3
men nyt</w>
ra dio
toim isto
c y</w>
Min kä</w>
täytäntöönpano a</w>
K ell
vel kaa</w>
sano t</w>
lu pa</w>
K ro
järjestel mä
ma ita</w>
het ken</w>
Ha us
sul j
nn o
sisäll yttä
vapaa ehto
mä tön</w>
ten kään</w>
ee sta</w>
vä sy
ja o
I T</w>
r ing
6 3</w>
soveltamis alaan</w>
selke ästi</w>
mi ltä</w>
f e
alu ssa</w>
ki it
T yy
G re
moni mutka
mu n
bi o
T EN</w>
pyy nnöstä</w>
edel tä
ann an</w>
ll an</w>
mi in
p la
r oi
kumppan uu
MYYNTILU VAN</w>
vaiku ttavat</w>
kau kana</w>
b ri
Y UT
Ro uva</w>
E A</w>
Min äkin</w>
mma a</w>
ta ul
h u</w>
ny ttä</w>
ssi in</w>
häne en</w>
Mic ha
ro sen
selvi ttää</w>
ä iti
raka stan</w>
rakenn eraha
T ee
myy nnin</w>
sel ittää</w>
mon en
merkity s</w>
a var
hake maan</w>
ty tön</w>
issa kin</w>
C or
mer en
d yn</w>
IT TA
rj an</w>
ai ot</w>
kehittä mistä</w>
poliitt ista</w>
kon f
päätöslausel man</w>
täy nnä</w>
B K
u ksissa</w>
vuoti as</w>
ks issä</w>
A s
kl o</w>
vi de
ur in</w>
käsittel yssä</w>
yhteisö ön</w>
B -
sin ulta</w>
e maan</w>
tyy pi
erity istä</w>
jat ko
to tuu
vuosi ttain</w>
ka ttaa</w>
o mia</w>
varmis tetaan</w>
8 3</w>
laitt eiden</w>
au ki</w>
olosuhte issa</w>
vo isimme</w>
itt eet</w>
tulo ksia</w>
tuke e</w>
hi da
Vau htia</w>
per in
itt oa</w>
o ve
hall itu
P O
mieli pite
Ku in</w>
kal vo
il ta
vi t</w>
liitty vän</w>
järjest ön</w>
ho us
to istu
pyö r
Ter ve</w>
6 9</w>
muka va</w>
lop e
aja tus</w>
yhden ty
hyö kkäy
seura ta</w>
halua isi</w>
tele visi
itys lista
No in</w>
H eidän</w>
ja kau
pää oman</w>
ha jo
toi mit
väli ttä
sel väksi</w>
7 8</w>
ene mpää</w>
Ä it
sosiaal isen</w>
sano taan</w>
toim itetaan</w>
miel essä</w>
M y
kon eiden</w>
arvo n
tavoi tteen</w>
kulutta jien</w>
yli op
esittä nyt</w>
sa ks
val itettavasti</w>
kilpail ua</w>
käyte tty</w>
t h</w>
Ny ky
pane uvo
hallin ta
Hen kil
Py sy
7 6</w>
Tarkoi tan</w>
ta tte</w>
kuningas kunta</w>
G a
F a
aika isemmin</w>
ky vyn</w>
T oh
painop iste
hava ittu</w>
S O
L y
ohjel maa</w>
O r
a iset</w>
sto a</w>
it uu
ka usi</w>
Un ka
Ka s
K il
ta ikka</w>
lääkä ri</w>
mm ista</w>
j enn
suur en</w>
ett uja</w>
- ja</w>
ta kaa</w>
ris ki</w>
pa ha</w>
Rans ka</w>
näkö kul
Tul e
h tt
va se
es ity
poi kani</w>
tarkistu ksia</w>
NU T</w>
vä tkö</w>
korke a</w>
vaiku tta
. e
täyden tä
luo na</w>
voi ttaa</w>
peru ss
laajen ta
V I</w>
di kaa
val ita</w>
N IM
kehi ttää</w>
AN TO
inn än</w>
suunn a
sy dän
turva ssa</w>
jäl ki
mu ksen</w>
VA RO
myönne tään</w>
3 1.
pitä vät</w>
luettel o</w>
kuva us</w>
tavoi tteita</w>
kyse iset</w>
me s</w>
stä si</w>
kansainväl isten</w>
mpi ä</w>
o vi</w>
1 6.
parhai llaan</w>
htt p</w>
Val i
nähd en</w>
vara a</w>
ma kse
joka isen</w>
vi is
j ista</w>
eri en</w>
luo kan</w>
ma lta</w>
F R</w>
osoitta vat</w>
tti ä</w>
vel je
pala utta
d iin</w>
Y li
ih mistä</w>
asia kirjan</w>
ta hd
tava rat</w>
it sin</w>
läh ti</w>
ko itu
alu sten</w>
s ö
la ki
seur an
laa je
A i</w>
kka ita</w>
ty jä</w>
ist in</w>
ohjel ma
tuo mio
tod ettu</w>
yli ttä
painop rosen
o -
d at</w>
tosi asia
väl isten</w>
ä ske
En kä</w>
a ista</w>
C la
mu na
tu lit</w>
c o</w>
koulutu s</w>
kansa llinen</w>
eurooppala isten</w>
p las
ist en
T än
pela staa</w>
määri ä</w>
in ä
neuvosto ssa</w>
hin ta
kuu den</w>
tutkimu sajan
dä mme</w>
välin eitä</w>
todell inen</w>
A gen
kysymy kset</w>
nn el
määräy kset</w>
kirja ssa</w>
ystä viä</w>
Kansa inväl
kas vo
b y
aa ttor
in ut</w>
vaihto ehto
L IS
v un</w>
mma ksi</w>
- Hei</w>
b in</w>
Tie tenkin</w>
vuoro kau
munua isten</w>
pi me
ongel mat</w>
järjestel mästä</w>
tule van</w>
Tied ämme</w>
keskuspan kin</w>
E l
käyttä yty
HYVÄKS YN
C on
in hi
tto i</w>
kanna tta
b l
ih me
kä teen</w>
Jäsen valtiot</w>
t hän</w>
ki e
R -
kuole e</w>
ä r
hyvä ks
S ve
toi mista</w>
maks an</w>
Vi elä</w>
ta al
p anna</w>
in ten</w>
arvo paper
energi an</w>
Huo menta</w>
Tar k
E ura
taloudell isten</w>
lähesty mis
kke ita</w>
vuo sia</w>
ilmo itettu</w>
tutki a</w>
ala t</w>
tt an
mo ne
ää ni
sopi i</w>
valuu tta
: lle</w>
I nti
näy tä</w>
ra al
ti lo
ssuu nnitel
la sta</w>
ust e
nimen sä</w>
K KA
te ttua</w>
B al
Ni itä</w>
seuraa vista</w>
haa ste
t s</w>
luonn o
n ar
Y stä
enemm istö
pien en
varsin kin</w>
u ksesta</w>
veren pain
ty istä</w>
H A
säännö llisesti</w>
lääkke itä</w>
aika välin</w>
ee ksi</w>
av un</w>
oma sta</w>
0 2</w>
viljel y
su ju
kehittä minen</w>
kunni o
arvo ista</w>
lääkä r
En sinnäkin</w>
z i
väär ässä</w>
köyh yy
aiko ina</w>
jo ssain</w>
u kseen</w>
ensimmä istä</w>
tä ltä</w>
lääkke iden</w>
j iä</w>
jä rj
vuo t
vaka vasti</w>
mma ssa</w>
ik ke
g en</w>
arvio innin</w>
Ta ulu
G ra
PÄI VÄ
e x
vähe mm
seitse män</w>
ettu ina</w>
jä nä</w>
ky vy
kein o</w>
tark ista
1 50</w>
I V
toimi eli
ten si
maahan muu
pitkä lle</w>
ilma ston
poliitt isten</w>
AK T-
ta van</w>
yhd eks
tie tenkään</w>
tai da</w>
Pää stä</w>
pitkä aika
ty llä</w>
kau della</w>
ee llä</w>
ta vat</w>
ta ppi
d ri
yte tty</w>
tälla isen</w>
maa ilma
ehdo t</w>
si viili
val taan</w>
Eura to
m ö
saira sta
va un
luo tetta
yhd istä
par ann
p yh
käy tä</w>
Itali a</w>
lu ete
uno htaa</w>
kansala isille</w>
ss äni</w>
sovelta misesta</w>
v .</w>
ss anne</w>
rauta tie
ke r</w>
hä tänä</w>
talo us</w>
O vatko</w>
15 .
ll öin</w>
7 9</w>
tteli jä</w>
ta usta
Tän ään</w>
Ol kaa</w>
tt ei
artikla a</w>
pel ast
yrity s
hai ta
hei llä</w>
men ojen</w>
ta hto
tilante esta</w>
ko vasti</w>
järjestel miä</w>
ent oli
S opimu
lä mm
bi olog
vyy den</w>
naimis iin</w>
periaa tetta</w>
Toh tori</w>
konf lik
ed ust
tarka sti</w>
li ja</w>
ity sten</w>
anta vat</w>
- osan</w>
alu eita</w>
valvon ta</w>
er g
tie de
ke tta</w>
Halua mme</w>
- Onko</w>
täydell inen</w>
siir tää</w>
väest ö
seuraa via</w>
ju tella</w>
puole staan</w>
te ttujen</w>
da kseen</w>
käsittel y
sopimu ksia</w>
puhu u</w>
voi tte</w>
ympä ri</w>
te tu
ole tko</w>
nä issä</w>
vii py
Sa moin</w>
merkittä viä</w>
o to
rau han
ku van</w>
muka isen</w>
hyväksy y</w>
ett ö
kaik kein</w>
pi r
ajoneu von</w>
raken te
hien o</w>
kuule mma</w>
ole kin</w>
kko ja</w>
n ti</w>
Tie sin</w>
Vi ra
ttel i</w>
tuomi o</w>
koulutu s
Bri tann
kesk isuu
kaike sta</w>
utu mis
peru sase
maks ujen</w>
ku do
ta vana</w>
Ko ko
istu n
lop ulta</w>
s sien</w>
a an
suo jaa
Tä ytyy</w>
1 4.
g na
hel ppoa</w>
menettel yt</w>
koo stu
no sta
sie men
ka d
ka tta
k enn
M UU
menettely jen</w>
tilante eseen</w>
keho ttaa</w>
painoprosen ttia</w>
v is
ul kona</w>
koulutu sta</w>
vaiku ta</w>
piiri in</w>
paika ssa</w>
toimin na
luo tto
ann ettiin</w>
yksik ön</w>
st oimin
hedel mä
v ina</w>
ed un</w>
nyky ään</w>
un i</w>
välttämä ttä</w>
sopimu kset</w>
v utu
he mo
min ne</w>
P A</w>
liitty mis
ANTA NUT</w>
kata stro
it si
Mu ka
o ksi
kiel te
I U</w>
po st
suoje lla</w>
te ura
al enn
lap se
in kaan</w>
sen kin</w>
taso lle</w>
Väli meren</w>
ll ise
ehdotu ksesta</w>
kaup pa</w>
suojel un</w>
tule hd
kaupun gin</w>
kerto o</w>
kes ken
P ER
- Kyllä</w>
NIM I</w>
yhte isiä</w>
jo sta
ti o</w>
vaka va</w>
tarkoite tu
kohte ena</w>
el u
päivä ssä</w>
Löy sin</w>
äit ini</w>
kyse istä</w>
va ale
M ikä
A .</w>
sai vat</w>
täytäntöönpan on</w>
5 0
nn a
tt ää
ster da
kysymy stä</w>
ajoneuvo jen</w>
Tu rva
jäsen iä</w>
vakuu tu
Yhdisty neiden</w>
perusta a</w>
rin na
tulo sten</w>
liitty vä</w>
käsittel y</w>
to ista
ell ut</w>
kann ust
i la
mani taar
ll u
ke l</w>
Bulg ari
men ot</w>
H AL
ll iseksi</w>
uu teen</w>
tie tävät</w>
lääkä rin</w>
................ ................
H il
utu i</w>
pala u
valmi ina</w>
Am sterda
va mma
edusta ja</w>
b ur
koske vissa</w>
Kuul e</w>
lupa a</w>
Ih mis
T eillä</w>
pyy d
kas vaa</w>
Min ulle</w>
tuotta jien</w>
pää te
li mme</w>
tuotannon alan</w>
elä mää</w>
mu kan
den kin</w>
yh ty
re ag
kirj oi
vii kossa</w>
puhel ime
T on
L aa
ttel u</w>
jon ko</w>
ko pi
Ker to
helpo sti</w>
taiste lu
lap sen</w>
tto muu
muuto ksen</w>
tai taa</w>
vira sto</w>
p pa</w>
tila isuus</w>
toteu tetaan</w>
alu etta</w>
vä ni</w>
soli daar
met rin</w>
Ki va</w>
illa lla</w>
tod ettiin</w>
Y mpä
mahdoll inen</w>
miel ell
S oita</w>
en saa
ku u</w>
vaadi taan</w>
Sa m</w>
pi il
Slo ven
va stuu</w>
l ar
huol to
taa sti</w>
yksik kö</w>
päätel mät</w>
Nä itä</w>
ole vansa</w>
ohjel maan</w>
esi tti</w>
opol iti
vo itu</w>
hä vittä
Tiety sti</w>
k tro
hyväksy ttä
määri en</w>
Nä etkö</w>
tava ro
nime si</w>
d elta</w>
Lähd etään</w>
o b
llis ena</w>
täy d
myr ky
Sa ma</w>
pel o
j iin</w>
hte en</w>
jutu n</w>
Nä en</w>
Itä -
etty jen</w>
isin ko</w>
tää n
tu us</w>
s sit</w>
glo b
suunnitel tu</w>
h en</w>
le s</w>
hd i</w>
L L
kiire ell
Vii me</w>
S ar
muodo sta
ko t
me tyyli
n is
T š
al ta
re hu
ta ito
se hdo
h ol
Yhteisö jen</w>
ase maa</w>
te o
Hä iv
tasa valta</w>
tuo te</w>
Kuulo staa</w>
käyttä en</w>
kasv u</w>
osapuol et</w>
kestä vän</w>
ku si
aa t</w>
jo udu
myönte isesti</w>
katso i</w>
M ain
e tä
Py sä
suuntavii vojen</w>
valmis tel
otta vat</w>
kolma s</w>
päälly ste
demokrati an</w>
S is
kap teeni</w>
etu jen</w>
S ch
u ss
vaa d
M oni
te lu
M iltä</w>
po istaa</w>
periaa tteiden</w>
kasv un</w>
hyväksy tään</w>
O hjel
pa he
paika lle</w>
L ou
käyttä vät</w>
lähte e</w>
Ol isin</w>
potila ille</w>
llisuu tta</w>
asetu sta</w>
suojel ua</w>
YUT P</w>
eh ti
seuraa vien</w>
ilmo ituksen</w>
i ha
Fran k</w>
Ra ho
U usi</w>
valtu us
Etelä -
väh enn
a mi
kesku s
n etto
S opi
en o
Y S
et kä</w>
a ti
I sä
ta ki
A la
prosen tti
K re
lou kka
pa h
tosi aan</w>
riippu u</w>
men en</w>
Pal jon</w>
lan ti</w>
kansall ista</w>
viha inen</w>
todiste ita</w>
kah ta</w>
ystävä si</w>
main ita</w>
per h
i i</w>
sta nne</w>
tutkimu sta</w>
keskustel ut</w>
te ette</w>
Ääne sty
P ete
J an
f armako
En g
au ta</w>
anne tussa</w>
rati fi
ö ö
aihe esta</w>
uno hta
vie sti</w>
pan kin</w>
tap pan
osa sto</w>
johdanto -osan</w>
puhd istu
S ta
pel kää</w>
ni lle</w>
elä mäni</w>
sen tään</w>
La t
hakemu ksen</w>
j u</w>
err y</w>
mietinn ö
J Ä
neuvottel ujen</w>
kemi a
suhd e</w>
s it
kon ser
f in
kysymy ksiin</w>
de ja</w>
yks ino
tiedä tte</w>
pa llo
Ko so
in to
yhteiskunn a
jo lle</w>
itsen i</w>
e teen</w>
avoi me
työ stä</w>
L is
- Kiitos</w>
vel ka
suur ta</w>
perust eet</w>
tek isi</w>
p es
tus kin</w>
ma h
D ar
A sia
istu nnossa</w>
yri tti</w>
Krei kan</w>
injekti opu
pää si</w>
välttämä ttö
i mmat</w>
Puol an</w>
ihmis oikeus
ll isella</w>
s -
me tab
vuo tu
politi ikkaan</w>
mietinn östä</w>
Jä l
kappal eessa</w>
yksityiskohta isista</w>
elä mä</w>
taud in</w>
k kun
C ha
g y
pro f
tälla isia</w>
la ino
Ih miset</w>
soker in</w>
h etta</w>
Ko mite
ympärist ön
määritel ty</w>
suu n</w>
sy nn
yhteen sovi
2 .</w>
M il
to isella</w>
hän eltä</w>
kulje tus
san a
tu esta</w>
ito distu
mar gin
etty ä</w>
matto mia</w>
menettely jä</w>
mer kin</w>
ei ksi</w>
ympä ri
pu l
kunn olla</w>
per in</w>
Ann an</w>
voima ssaol
kaik en
euro pa
sta r
va ali
l entoli
viime isen</w>
kansall isia</w>
Po tila
tie s</w>
joka inen</w>
väl ity
henkilö t</w>
To is
vahvista misesta</w>
jö ille</w>
men nään</w>
säil yttää</w>
sovelletta vien</w>
uusi utu
aal i</w>
et sin
Toi min
täytäntöönpano sta</w>
M yy
tal on</w>
aika välillä</w>
Joka inen</w>
men t</w>
ista n
rau hall
Jo tkut</w>
lle kään</w>
mootto ri
is at</w>
pää sihte
la itos</w>
a mista</w>
mma sta</w>
vir ta
käsittel yn</w>
Amer ikan</w>
Vo isitko</w>
Af gan
s ope
: tä</w>
voima kkaasti</w>
päästö jen</w>
alo jen</w>
ehkä is
in dikaa
kahdeks an</w>
vä r
ksin kerta
haitta vaikutuksia</w>
4 00</w>
merki lle</w>
Pohjo is-
p elä
ma ille</w>
e ko
us e</w>
r ed
f yys
EL L
täs mä
Tä rke
IN N
ap tee
teknolo gian</w>
ka mpan
järjest ää</w>
pan kki
mma lla</w>
ss ä
To m</w>
kansala isia</w>
tek sti
myöhä ssä</w>
eri kseen</w>
muuto sta</w>
b ru
J A
muo doll
tarvitse t</w>
tar ke
v et</w>
li pu
tekn olog
etu ja</w>
alu ksi</w>
ttu ihin</w>
ton sa</w>
las ken
perusase tuksen</w>
pi dät</w>
ko ho
Bel gi
hä v
di lle</w>
al ist
20 .
ras va
direktii viä</w>
ho uku
il menee</w>
mahdo tonta</w>
glo bi
män ä</w>
en iten</w>
ole vaan</w>
S oitan</w>
S ha
ol o</w>
haa sta
i py
PÄIVÄ MÄÄRÄ</w>
hy per
nel jän</w>
pysy ä</w>
puol ustus
tä minen</w>
ka ise
hu r
so tilaa
ilmoi tti</w>
välin e</w>
yhd ellä</w>
E ET</w>
tty jä</w>
Yhdisty ne
huone essa</w>
en ala
U kra
ä lä
Nä yttää</w>
vuo kra
Anta kaa</w>
To dell
ver kon</w>
alu ksen</w>
ky ky</w>
kka at</w>
ete lä
ta isi</w>
käytä nnö
ta ko</w>
ma ksi</w>
M it
kä si</w>
av ust
An d
tehtä vät</w>
asiakirjo jen</w>
vira llisen</w>
: sta</w>
pa hen
Ar vi
si do
kesk ity
pa ikkaan</w>
eurooppala inen</w>
l en</w>
eri ff
p etty
ilma -alu
puheenjohta jan</w>
ik on</w>
tu aan</w>
vyy ttä</w>
toimenpite isiin</w>
Sä il
in t
markkin oita</w>
v ei</w>
tuomi on</w>
kehity kseen</w>
ol in
tois sija
itse si</w>
vi ttu</w>
inti in</w>
saavutta miseksi</w>
Seuraa va</w>
Yr itin</w>
maan sa</w>
Sy n
mmä lle</w>
saa maan</w>
vih oll
jä lle</w>
yksino maan</w>
laa tua</w>
al taan</w>
kasv ua</w>
ko ne</w>
sul ke
ka si</w>
yli määrä
pa iko
mu i
asen n
O nne
nuo ri</w>
hd y
Micha el</w>
mu illa</w>
an na
var sin</w>
Char lie</w>
Ympä rist
toimi joiden</w>
To ki</w>
työllisyy s
vaikutu ksen</w>
kas vu
sa mat</w>
päätty y</w>
in een</w>
ten sä</w>
sä te
ho ja</w>
sta t</w>
Huo ma
a misesta</w>
tta an</w>
tan ssi
sisälty vät</w>
ehdo kas
kerr on</w>
ista mme</w>
vi isu
ohjel masta</w>
maks etta
Mi es</w>
ymmär ry
raken teell
Val mis
F or
arvo ja</w>
I stu</w>
markkinajärjestel ystä</w>
le r</w>
ide a</w>
KÄYT TÖ
mainitt ujen</w>
vä le
d is
ratka ista</w>
prosen ttiin</w>
T ra
kesku stella</w>
O p
ole skel
te lli
aja te
vyö hy
suori ttaa</w>
suunn ite
lisä tään</w>
it oi
päätö sten</w>
turvallisuu s</w>
löy tyy</w>
S ul
itse ään</w>
in t</w>
ki mp
tt inen</w>
va t
el a
eriko is
ne itä</w>
kri isin</w>
Hän tä</w>
sta a
j y
lan d</w>
kuul ostaa</w>
etu a</w>
sa si
valla ssa</w>
esite tyt</w>
I ON
vira llinen</w>
tii vi
san a</w>
oli mme</w>
la illa</w>
taloudell isia</w>
san ka
sisä lle</w>
laad un</w>
ho mma</w>
R as
kohd asta</w>
hu oli</w>
tta isiin</w>
Yhdisty nyt</w>
KS ET</w>
tö r
m ää
luo pu
julk isten</w>
men n
Kaik kien</w>
Davi d</w>
st ettava</w>
kau pan
ol uo
kesku s</w>
periaa tteita</w>
pel aa
osa sto
ver ran</w>
ä hte
ast ei
b ro
ou toa</w>
E EN</w>
mi llään</w>
tta miseen</w>
st ö</w>
j e</w>
kyse isessä</w>
välin eet</w>
Mon et</w>
pain on</w>
musi ik
idi oo
Portug alin</w>
tarko ita</w>
luonnoll isesti</w>
Sc hengen
vä lle</w>
kes kinä
p e</w>
vaati a</w>
sse ja</w>
varova inen</w>
la ssa</w>
kesku ksen</w>
La ita</w>
ki lausu
keskustel u
raho itus</w>
- Älä</w>
u ksessa</w>
lo s</w>
199 0</w>
Hel v
tilin tarkastustuomioistu
Vo isin</w>
lisä y
a kti
- Minä</w>
hu manitaar
R :n</w>
puol ten</w>
aja ksi</w>
ene e</w>
tulo s</w>
it ua</w>
läh ett
e päi
Jo tain</w>
lis ään
po sti
viest in</w>
p isto
luo ki
O h
päätty nyt</w>
poikke ukse
katastro f
4 ,
HYVÄKSYN YT</w>
ero on</w>
julk is
valmi iksi</w>
suos itu
tehtä vänä</w>
kappal e</w>
pel kkä</w>
h kö
Si is</w>
ite tun</w>
k te
ano sa
0 7</w>
läh etti</w>
ha kea</w>
Puheen johtaja</w>
S IS
Mu istan</w>
vähemm istö
inn issa</w>
el taan</w>
ID EN</w>
kunn on</w>
kokonaisuu dessaan</w>
S ara
Kerr on</w>
Muu ten</w>
hyväksy ntä
tiedon anto</w>
nä et</w>
oire ita</w>
kau he
e sin
A -
periaa te</w>
isi tteko</w>
ma ala
lää kin
0 3</w>
oi daan</w>
g li
pääse e</w>
EU V
NU MER
ber t</w>
saa stu
Li itt
yhtenä is
työ nanta
sin äkin</w>
l y</w>
To d
työsken ne
R yh
Yhdys valta
lop pu</w>
puolu een</w>
n o</w>
tuo ma
vi a
B en
harvin ainen</w>
sovelta minen</w>
Oli mme</w>
antu nut</w>
tt eille</w>
kerra lla</w>
On pa</w>
po jan</w>
tarv etta</w>
vuu desta</w>
ilmo itu
pa ti
ihmis ille</w>
esittä mä</w>
helv etti</w>
D -
kirja a</w>
syö dä</w>
so dan</w>
teki jät</w>
ky llä
edellyttä en</w>
ta jua</w>
Näy tä</w>
moni muoto
suunta utu
g on</w>
Direktii vin</w>
ki va</w>
lop ul
J ee
Y P
Ja pan
l ö
na ur
onn ell
kun tia</w>
voi man</w>
valmi ita</w>
asu u</w>
mo r
ss elo
na tri
di ab
poliitt isia</w>
pe r</w>
pyrki my
tarv itsen</w>
ho tell
leik kau
henkilö stön</w>
M itä
polku myyn
g os
P hi
h ei</w>
Ruot sin</w>
inter ven
mme kä</w>
nä illä</w>
ole kaan</w>
VALMISTE EN</w>
asian aja
al f
tion aal
kon i</w>
Il mo
työ markkina
nimi kke
synty mä
ohjel mia</w>
u ksi</w>
muuta ma</w>
työpaikko jen</w>
pare mpaa</w>
j anta
ista si</w>
lu ke
lla mme</w>
agen tti</w>
tu mis
pitkä llä</w>
su ol
kuole man
käs ky
nuor ten</w>
ikä y
pur ka
Miks ei</w>
vapa utu
lainsäädän tö</w>
f y
ne tään</w>
neuvottel ut</w>
K ulta</w>
allekirj oitta
u na
lap sen
ään sä</w>
matto man</w>
me ja</w>
so ta
e kin</w>
199 1</w>
j ne</w>
strate gia</w>
a c
laske taan</w>
ki err
keske inen</w>
tuki kelpo
28 .
V ih
jul kilausu
ponn iste
Henkil ö
1 -</w>
Esi merkiksi</w>
Maa il
luo vutta
onn istu</w>
O IT
R an
nouda tetaan</w>
Bel gian</w>
tu pa
jä tti</w>
u ksien</w>
eten e
kat sa
prose ssi</w>
mu s
oso ite</w>
ohj eet</w>
as kel
C H
LU K
A ina</w>
Lä h
kunni an
bi an</w>
Pete r</w>
myö tä
tehtä vien</w>
UN ION
ryh tyä</w>
ika t</w>
aamu na</w>
ris kin</w>
kun taa</w>
ent syy
osa an</w>
A IN
tie tä</w>
as kel</w>
S .</w>
maail ma</w>
i mi
lau ta
jäsen yy
lääkä ri
Et sin</w>
yle istä</w>
g er
pää asia
ra v
ylpe ä</w>
jaks olla</w>
komissaar i</w>
taa ta</w>
vasta us</w>
h ittoa</w>
y ttä</w>
TI ED
tu ksia</w>
vä sty
oikeu teen</w>
Yhdysvalta in</w>
todell akaan</w>
y den</w>
lu ki
suu ru
e mmin</w>
käynn issä</w>
korke an</w>
itse äsi</w>
c on
ku via</w>
Taulu kko</w>
ma mme</w>
tehtä viä</w>
Keskustel u</w>
esiin tyy</w>
jaks o</w>
tapahtu a</w>
sosiaal iturva
kala stu
ole vista</w>
määrittä miseksi</w>
komite alle</w>
alu eille</w>
inhi mi
d issa</w>
ohjel massa</w>
Au ta</w>
ääri mmä
liitt eeseen</w>
uu desta</w>
järjestel mässä</w>
N uo
tarv ita</w>
ka li
Y l
ul a</w>
: ssa</w>
paranta miseksi</w>
st ettu</w>
ttä kää</w>
puheenjohtaja valtio</w>
men että
kehittä miseen</w>
L änsi
voi tava</w>
a vai
LÄÄ KE
teho kas</w>
tarkastel u
perustus la
odo ta</w>
ala isia</w>
tark istaa</w>
roh ke
erä s</w>
arvon lisä
Vi e
ttä is
ista ni</w>
nä en</w>
raska ana</w>
tuo ssa</w>
tila pä
tarv e</w>
paski ainen</w>
soi tti</w>
tuo ttaa</w>
hankke ita</w>
raka staa</w>
edistä miseksi</w>
vuosi tta
2 -</w>
: ssä</w>
toimen pide</w>
ett emme</w>
ehdo ttomasti</w>
H ai
un el
st oi
politiika sta</w>
p ell
su ru
per usta</w>
tie to</w>
potilaa t</w>
a ks
pi ilo
parlamen ttia</w>
gos la
ta essa</w>
pyrki i</w>
T ho
C A
lä pi
hyväksy ttiin</w>
haus ka</w>
I stu
Val itettavasti</w>
näke e</w>
a tko</w>
Odo ttakaa</w>
PA KKA
A jo
PÄÄ TÖ
yty s</w>
hä vi
äi din</w>
no staa</w>
puole en</w>
täysi määrä
ito umu
väl ttää</w>
un ta</w>
luku määrä</w>
L t
kunn alle</w>
riippu va
opiskel i
ku vaa</w>
A vaa</w>
laa tia</w>
osuu den</w>
T TA
vaike uksia</w>
me tall
puhu nut</w>
to ki</w>
y a</w>
o tan</w>
d on
liuo s</w>
Alanko maiden</w>
vaatimu ksista</w>
ma ali
ni in
RA A
tod istaa</w>
hoido ssa</w>
huoma ttava</w>
tarkoitu ksiin</w>
aati on</w>
rin ta
S enkin</w>
ongel man</w>
sel ville</w>
sisä markkinoiden</w>
kko jen</w>
ke ja</w>
Ol isit</w>
vel i</w>
tu ken
ja mme</w>
val itse
b y</w>
p lan
oni a</w>
ta lle
jäsen tä</w>
te ta</w>
Ko o
iss ään</w>
tin ut</w>
ss u
er itel
Ju gosla
investo inte
kaa mme</w>
mahdoll iset</w>
alku per
ik ko</w>
ole viin</w>
12 34</w>
k kel
ky n
vit un</w>
Var o</w>
ttämä llä</w>
ve si</w>
menta ja</w>
vah va</w>
iti mme</w>
tu ul
mma lta</w>
n en
vira llisesti</w>
ilmo itetaan</w>
oi mme</w>
is ke
toimivalta isten</w>
kustann uksista</w>
vä ittää</w>
E lin
Esi ttelijä</w>
Tois aalta</w>
y istä</w>
mall in</w>
Jumal an</w>
taloudell iset</w>
vaih tele
pa s</w>
tto mia</w>
tarkoitu ksen
pysty y</w>
vaikutu ksista</w>
19 .
kyse enala
Ymmärrä tkö</w>
vi enn
koh tana</w>
tta misen</w>
pu t
ali jää
suojel u</w>
Helv etti</w>
eurooppala ista</w>
tärke in</w>
es itettävä</w>
elä mään</w>
työ järjestyksen</w>
muu ttunut</w>
H eillä</w>
M EN
määr ään</w>
auto maatt
tyttä r
enn y</w>
kolma nn
ite tut</w>
17 .
jou kku
pro tei
p an</w>
maa talou
ho jen</w>
p rin
Geor ge</w>
kansainväl inen</w>
pi ke
c to
umer o</w>
mist ään</w>
ka an
mi hin
kuu ntele</w>
Vi e</w>
ed er
toimi maan</w>
näy tte
A li
s issa</w>
: stä</w>
Ko ke
Jo e</w>
NUMER O</w>
viipy mättä</w>
P au
mm i</w>
taulu kossa</w>
V II
saira ala
kor ko
häiri öt</w>
jan sa</w>
ole ma
yhti ö</w>
g er</w>
enn ust
aika taul
F o
kulttuu r
e ja</w>
puh un</w>
vii västy
potilaa lla</w>
pid että
- Miksi</w>
uu mmin</w>
oi tte</w>
kä s</w>
sa massa</w>
pyy ntö</w>
isuu ksia</w>
in eet</w>
liitty vää</w>
jä tä</w>
aja tella</w>
a mm
Sa malla</w>
Määr ä
10 -
Li ike
kul ut</w>
ih on</w>
huole llisesti</w>
ksi aan</w>
me en</w>
mi s</w>
muodo stu
yhteen kuulu
va llo
lu ettuna</w>
kalta iset</w>
sä r
tapa us</w>
voi maa</w>
teoll isuu
lann issa</w>
viranoma iselle</w>
tu et</w>
istu a</w>
tutu stua</w>
käynn istä
jo jen</w>
o tettiin</w>
Voi tte</w>
ty s
Pal jonko</w>
rau haan</w>
ikä vä</w>
tul et</w>
kon tro
pitä mään</w>
lääkke en</w>
seuraa mu
lehd en</w>
re ja</w>
liitty ä</w>
se ksu
M P</w>
jä i</w>
R I
Tie to
0 8</w>
st ee
pas kaa</w>
ERITY IS
suhte et</w>
asu n
Kä si
mahdoll ista
al en
T arvi
tie tyn</w>
BK T
s oitta
hin nä</w>
Aio tko</w>
menetel miä</w>
mal a</w>
pysy vän</w>
ma -
jo tkut</w>
N N
lu va
mihin kään</w>
py yh
ka te
C hi
Miet inn
10 00</w>
ih än</w>
sekto rin</w>
ver en</w>
ityslista lla</w>
terroris min</w>
tarvitse vat</w>
ai hetta</w>
ase iden</w>
ehdotu kset</w>
vapa asti</w>
kas vin
ww w
A :n</w>
työllisyy den</w>
pä in
E rä
tal o</w>
Is äni</w>
0 4</w>
ve h
voi hin</w>
18 .
r eiden</w>
tu kia</w>
vuorokau dessa</w>
valla t</w>
kauppa an</w>
vastaa vien</w>
muka vaa</w>
L ain
päällik kö</w>
hä l
kyky yn</w>
puol ust
huol en
todell ista</w>
tila isuuden</w>
lu kea</w>
Ma hdoll
pakkau sselo
valio kunnassa</w>
itett ujen</w>
29 .
pe u
äske ttäin</w>
Amsterda min</w>
m edi
SEU RAA
n on</w>
rau han</w>
Kansa kuntien</w>
ja kaa</w>
su s</w>
päätöslausel ma
järjestely jä</w>
men tävä</w>
P aika
tapa an</w>
een ä</w>
julka ise
avi o
Mik e</w>
CN- koo
tapahtu van</w>
ka ma
maks uja</w>
t ku
mo on</w>
muu alle</w>
tu lle
tuleva isuuden</w>
yy li</w>
kansa llis
Maa ilman</w>
il ee</w>
välin e
lai ttaa</w>
T ri
1 3.
llisuu s</w>
he ikko
Va pa
UKS ET</w>
väl iset</w>
tehtä vän</w>
kiinni ttää</w>
vajaa toiminta</w>
Jä tä</w>
Mu ista</w>
ma tka</w>
aika ise
2 4.
erity isiä</w>
ympäristö ä</w>
ko mmen
liik enn
Erity isesti</w>
ma gne
a hd
tuotan to</w>
vaih taa</w>
un sa</w>
ten ä</w>
velvollisuu s</w>
tta ja</w>
sa mmu
käsittel yä</w>
mm y</w>
pa peri
mma lle</w>
ele ktro
Ai on</w>
ity kset</w>
tie tyt</w>
t se
keino ja</w>
Ka i</w>
Sin ähän</w>
jär ky
l an</w>
si ä</w>
ase ita</w>
tu kit
t r
ko va</w>
Tans kan</w>
K ää
r et</w>
uut isia</w>
ka lla</w>
arvioi daan</w>
yö nä</w>
viik ko</w>
Ko re
mpi in</w>
ti he
kun ta
ö lle</w>
to isen
nu tta</w>
etsi ä</w>
välity ksellä</w>
to ks
tuo sta</w>
ud an
tärke i
rajo jen</w>
f il
sosiaal ista</w>
asi oihin</w>
P har
nime ä
istu u</w>
so sa
merkittä vää</w>
H aa
hyvin vo
potila ista</w>
I ran
ES SA</w>
esittä mään</w>
si el
asia an
so v
Alu eiden</w>
P U
hir vi
tu ensaa
tä mään</w>
I han
EK P:n</w>
ke ksi
epä ile
Onne a</w>
n it
he r</w>
Ol enko</w>
F i
muo to</w>
vaka via</w>
B os
kat son</w>
rah ali
lu ettuina</w>
Haus ka</w>
z in</w>
mit enkään</w>
hyväksy ttävä</w>
6 00</w>
utu vat</w>
B en</w>
olosuhte et</w>
vai mo</w>
teho sta
yhteistyö hön</w>
kiinti ö
kansainväl istä</w>
Yr itä</w>
jo ul
KS EN</w>
ko neet</w>
tuon ti</w>
la an</w>
raja -
ka tka
hemo globi
J i
hal usin</w>
yhti öiden</w>
Itä vallan</w>
taa juu
ku vaa
väle in</w>
hyväksy minen</w>
tetta isiin</w>
tabl ettia</w>
I R
vä nsä</w>
Euroop paneuvo
Ta va
mielen kiin
jo ja</w>
yhteistyö stä</w>
valti o
pää osaston</w>
Sä hkö
Kypro ksen</w>
se er
Voi mmeko</w>
ista nin</w>
menetel mä</w>
Par i
asianoma isen</w>
jä n
vi hdo
ty yl
korva taan</w>
E ttekö</w>
arvo sta</w>
suo tu
kerro in</w>
x in</w>
le ve
2 3.
4 -</w>
te ttuja</w>
ko neen</w>
Eurato m</w>
mesta ri</w>
Slo vaki
vu ssa</w>
poliitt iset</w>
vielä kin</w>
suku pol
kehittä mis
Mikä li</w>
a r</w>
sosiaali komitean</w>
työ hön</w>
to isin
I ra
rei l
kilpail u</w>
Val mista
voi ma</w>
tyy dyttä
maail maa</w>
tarkistu kset</w>
vast uun</w>
ee lle</w>
puhu i</w>
Kun han</w>
bb y</w>
En sin</w>
politiika ssa</w>
tari ffi
ro u
kahd esti</w>
Ja mes</w>
yh män</w>
voin eet</w>
vel jeni</w>
investo in
Ki rj
mp ään</w>
tie si</w>
ta kau
esite tyn</w>
en sinnäkin</w>
toime en
VA I
- Miten</w>
fo or
re s
ra han
pien ten</w>
W TO
ilma ista</w>
maini taan</w>
issa mme</w>
inst ituu
t inen</w>
tar in
hau ta
puheen vuo
ne y</w>
taka isin
p ään</w>
Ul ko
S uun</w>
enn ut</w>
miehen i</w>
potila an</w>
toimin nassa</w>
H -
i ttä
turvallisuu teen</w>
hy d
valmiste tta</w>
ha mma
assosi aati
N ope
korja ta</w>
Lä hi
tekni ikan</w>
huo maa
osallistu vat</w>
jon kin
i ä
syn tynyt</w>
ust oi
tta vissa</w>
perusta misesta</w>
mu sta
pien iä</w>
kä sin</w>
johta jan</w>
Kuu le
a m</w>
o sien</w>
An gel
Kau anko</w>
hallin to</w>
L ar
ver sti</w>
määri ttele
le hti</w>
sii vo
nä ki</w>
markkin ointi
tarkistu ksen</w>
S ala
tä hden</w>
ääne stää</w>
ru is
ker ää
ve r</w>
edistä minen</w>
tekn isen</w>
tunn ista
op a</w>
tulo sta</w>
iste ttiin</w>
Lu paan</w>
re tään</w>
varo ista</w>
ll y</w>
Tied o
hedel mien</w>
C lar
tarkistu sta</w>
di e</w>
ku mma
yksik öiden</w>
TÄ MIS
oire et</w>
puuttu u</w>
laa juu
lopu llinen</w>
VARO IT
Yle is
ryh mät</w>
uud ista
h ää
ala lle</w>
suo j
no t</w>
koh taa
F in
M ikään</w>
oll een</w>
valla sta</w>
laitt e
au rin
ton in</w>
väli in</w>
M E
ryh ty
ilmo itus</w>
toi vat</w>
tehtä vää</w>
kaupun ki
juh li
Ta ju
tila ssa</w>
l enn
täytäntöönpan o</w>
ma ino
au ttamaan</w>
lää ke</w>
V ara
mu n</w>
vaih ta
par issa</w>
johdon muka
E ihän</w>
e vat</w>
Ta voi
M U
vaar assa</w>
vaikutu s
kunnian himo
il ua</w>
To della</w>
nimen omaan</w>
käsiteltä väksi</w>
Pitä isikö</w>
ryh mässä</w>
väest ön</w>
saira s</w>
ttö ä</w>
Eurooppa- neuvoston</w>
pp u</w>
määri ttää</w>
yr itä</w>
li han</w>
joi denkin</w>
ra jan</w>
lä hinnä</w>
oi lta</w>
A utta
tieto kone
kalvo päällyste
hava itse
osallistu mista</w>
K ala
v ol
täy ttävät</w>
ajo issa</w>
G o
va tiiv
pyytä nyt</w>
C YP
S co
asia kirja</w>
tu han
oll essa</w>
toimit us
elä män
jo llei</w>
er gi
- -</w>
itu tionaal
valmista jan</w>
g o</w>
tappan ut</w>
huono sti</w>
muodo staa</w>
tö ä</w>
E x
su ih
min kään
g ista</w>
poikke a
to sin</w>
Lisä tietoja</w>
e mmekä</w>
vä itt
ryh mään</w>
hall itse
ko e
Lt d</w>
vir he</w>
Sin ua</w>
nne lla</w>
laa ja
hyväksy nnän</w>
myö h
työpaikko ja</w>
han kkia</w>
ohjel mat</w>
T he</w>
N EUV
ks u</w>
pöytä kirja</w>
W in
TA I</w>
men emme</w>
o saa
2 2.
tos issasi</w>
ääntö jen</w>
EY -
Kysy mys</w>
var alta</w>
J ää
tehokkuu tta</w>
Jo ko</w>
le vat</w>
vaih e</w>
N A</w>
tar ina</w>
määrite ll
moni en</w>
puhu maan</w>
bru tto
Espan ja</w>
oh jaa
ka hteen</w>
2 7.
sattu u</w>
muuto sten</w>
euro alueen</w>
riske jä</w>
vai moni</w>
ko sta</w>
taso a</w>
eh toja</w>
sel kä
järjesty ksessä</w>
et h</w>
er ään</w>
han ke</w>
it ustu
ei -
muu alla</w>
per he</w>
nuo ris
le viä
en kaan</w>
ksi llä</w>
hel ppo</w>
st uo
per se
ali as</w>
järke ä</w>
edellyty ksiä</w>
mah tava</w>
d un</w>
Ne iti</w>
ho m
kirj oitta
kaupun ki</w>
sopimu ksesta</w>
mis -</w>
yhd ys
ase tetaan</w>
S E
ti s</w>
totuu den</w>
pää johtaja</w>
varmista maan</w>
kolman sista</w>
ki lla</w>
luo ta</w>
201 4</w>
väl isiä</w>
tuo nne</w>
eng lan
S aan</w>
tie toihin</w>
rajoi ttaa</w>
ke uh
arvio intia</w>
S yö
vau ri
avi ir
yhtä lä
sovelta misen</w>
tt ar
tarkastel tavana</w>
kilpa ili
Kap teeni</w>
mur haa
K al
ki d
ro oli</w>
naimis issa</w>
TE R
ranga istu
il mi
RE IT
n ista</w>
Ä T</w>
toimivalta isen</w>
tuonn issa</w>
tois istaan</w>
päi vi
liikke eseen</w>
tapa hd
paika llisten</w>
Ja tka</w>
A U
st enmuka
o ven</w>
arvioi tava</w>
mielest ämme</w>
u ksella</w>
tytö t</w>
M INEN</w>
nyky isen</w>
Talo us
ehdo tta
ll iselle</w>
jo lla
Ta ka
b il
tälla isten</w>
aiheell ista</w>
paik kansa</w>
R y
täy tettävä</w>
rakenn us
injekti one
oll isuuden</w>
nyky istä</w>
periaa tteet</w>
paika t</w>
pa haa</w>
vä si</w>
tuo m
asianoma isten</w>
is än</w>
pu rj
tu ksesta</w>
ne ga
ERITYIS VAROIT
luul tavasti</w>
Ka hd
teke illä</w>
kuts ua</w>
O R
es ar
enn alta</w>
Ann o
r ten</w>
Mel ko</w>
tre ff
tapa amaan</w>
lu ji
määrä tä</w>
koo stuu</w>
ai he</w>
hein ä
Eurooppa a</w>
yty s
utu minen</w>
hd e</w>
edellyty sten</w>
mahdoll istaa</w>
P -
a ar
la ite</w>
Roma nian</w>
erity inen</w>
hy p
f luo
s ite
paranta minen</w>
mat kaa</w>
On gel
toteutta mista</w>
kuole maan</w>
Va h
onn ellinen</w>
aktiiv isesti</w>
Sai mme</w>
-- --
- Et</w>
C E</w>
po mo</w>
sovelletta vat</w>
ten ne</w>
SIS Ä
Tar jo
valmis tettu</w>
M ole
Au to
suo jaa</w>
tutkimu kset</w>
pyö rä
tunn en</w>
B ill
menettely ssä</w>
uno hd
vähen e
pal kin
no ista</w>
T aa
Ken en</w>
vii kon
ala ista</w>
toimin ut</w>
neuvosto a</w>
huo ne</w>
saira us</w>
hin g
H oll
taa kse</w>
tty nä</w>
s onin</w>
ru ko
selvi yty
kohd en</w>
Vä hän</w>
ss ämme</w>
ky ken
Ti la
kiel tä
ero ja</w>
min a</w>
b i</w>
Tu tki
kysymyks istä</w>
t ola
ttä miseksi</w>
I F
vahviste ttujen</w>
UNION IN</w>
piene mpi</w>
käy mään</w>
torju miseksi</w>
D ani
Odo tan</w>
J ess
vastaa maan</w>
prose ssia</w>
- O
Muu to
li ppu
hiili dioksi
aiheutu vat</w>
st ri
aluee sta</w>
var ha
makse taan</w>
Poi s</w>
hoi dan</w>
NEUV OS
LUK U</w>
, 5</w>
no ita</w>
vapau tta</w>
na ista</w>
ilm esty
har ra
ka at</w>
k la
Usko matonta</w>
seksu aal
sall itt
An taa</w>
laito kset</w>
ist oa</w>
is inä</w>
el imen</w>
o sto
ANTO REIT
luottamu kse
rajo ituksia</w>
gi t</w>
Äänesty s</w>
S Ä
ihmis oikeuksia</w>
IS TA</w>
min u
Kä yttä
it että</w>
tta vien</w>
tehd yt</w>
ver i
julk isia</w>
Pitä kää</w>
on en
muu tettu</w>
d ista</w>
M ei
lu en
sä ili
keske yttä
A ih
vähi ttäis
esi merkki</w>
S osi
Katso taan</w>
D ann
teki vät</w>
kos ki</w>
luetel ma
pää hän</w>
kun han</w>
V III</w>
ar k
to iselle</w>
kri itt
rii ttävä</w>
kä te
h inn
pa ten
ss an</w>
aloi tteen</w>
is e</w>
A su
ratkais un</w>
isto jen</w>
ks ina</w>
Min ähän</w>
usko nut</w>
vastuu ta</w>
ut kaan</w>
jat koa</w>
pää ttänyt</w>
onn itella</w>
men ettää</w>
op ti
Jugosla vian</w>
alu s</w>
maks u</w>
onne a</w>
ka ista</w>
ssa olo
kul ke
un saa
a h
H uu
se ssa</w>
asetu kseksi</w>
le h
raha sto</w>
c hi
ver on</w>
luettel on</w>
kiinno sta
la ul
aika an
vihanne sten</w>
huole htia</w>
päätöksen te
helpo ttaa</w>
San on</w>
Te hdään</w>
muodo stavat</w>
ty mä
tärke änä</w>
ol an
TIED OT</w>
hä ipy
Mu iden</w>
a d</w>
infrastruk tu
tsa pi
yri ttänyt</w>
osallistu u</w>
nyky aika
tuote tta</w>
koh tien</w>
veren vuo
v r
g eri
lai va
joh onkin</w>
KO S
histori a
määri ttel
es itä
mene vät</w>
tun ten
5- 0
V II</w>
K s.</w>
käyttä nyt</w>
2 50</w>
yhteis ymmärry
mu istaa</w>
rajoitta matta</w>
d os
nn i
joutu a</w>
sisäl tö</w>
tu sten</w>
matka n</w>
L -
ttel in</w>
lainsäädä nnössä</w>
ta hdo
tod ettava</w>
mist e</w>
vapa us</w>
te mp
pike mminkin</w>
r us
energi al
ajattel in</w>
hyödy ntää</w>
kesken ään</w>
J o</w>
hark ita</w>
johtu vat</w>
T us
toimivalta inen</w>
koir a</w>
us p
ty mis
ve to</w>
stru men
te sti
Wi lli
s ki</w>
Li ite</w>
oma isuus
ta ika
ään kö</w>
ominaisuu det</w>
tapau ksen</w>
ra han</w>
keske llä</w>
asianmuka ista</w>
Min ut</w>
Ma hta
säte il
kirj oittaa</w>
Isra elin</w>
kaas un</w>
perhe en</w>
pro fi
klo ri
vo isit</w>
el l</w>
etsi mään</w>
Poli isi</w>
lähd en</w>
tun tu
au tta
ni missä</w>
järjestä yty
energi an
Aih e</w>
perust eiden</w>
inf uusi
t han</w>
li ity</w>
Yhdys vallat</w>
kku a</w>
suhte ita</w>
tapau ksia</w>
ki ttava</w>
kahd esta</w>
tutki ttu</w>
laitt een</w>
keskustel ussa</w>
e mpi</w>
bo ur
ongel mien</w>
sano tun</w>
kulta seni</w>
tul in</w>
J imm
kutsu taan</w>
tu minen</w>
oi du
ne ste
el v
anno stel
ast een</w>
ki pu</w>
tekn iset</w>
lainsäädä nnö
osallistu minen</w>
vuu teen</w>
politi ikkojen</w>
ain akaan</w>
tu etaan</w>
ni men</w>
toime ksi
saman kalta
pu do
ediste tään</w>
nukku maan</w>
esitteli jän</w>
sall ia</w>
löy dä</w>
rans kala
käy nnin</w>
2 1.
ver i</w>
I kä
pää st
ai on</w>
yksinkerta isesti</w>
koulutu kseen</w>
paho in
re sep
To si</w>
ttu u</w>
ilme isesti</w>
toisi aan</w>
Ko h
Kil pa
tava sta</w>
main itut</w>
liitty mistä</w>
asi anosa
lai min
raaka -
väli lle</w>
E li
miehe lle</w>
Lu pa
unioni a</w>
perustu va</w>
hen keä</w>
poli isin</w>
tai va
itt anut</w>
la si
positi iv
ist ossa</w>
Schengen in</w>
pien en</w>
kah via</w>
kanna ta</w>
suuntavii vat</w>
miel uummin</w>
H D
rii ttämä
ju ttuja</w>
su rke
Pidä tkö</w>
suos itel
12 0</w>
käyttä mään</w>
ho it
ei llään</w>
tabl etti</w>
Pu hun</w>
väl isenä</w>
aloitta mista</w>
se o
O ttakaa</w>
ista vaa</w>
rau hoi
ir ro
vall an
hä pe
arvio i</w>
vankila an</w>
C -</w>
hakemu s</w>
He itä</w>
Nä issä</w>
la tti
K eh
yksikkö ä</w>
pää ty
No rjan</w>
näy tti</w>
j un
ti tte</w>
si joi
5 -</w>
a vaa</w>
p lo
myy dä</w>
inst itutionaal
g ar
Ja tka
pysy y</w>
väl iseen</w>
ala is
tutkimu ksia</w>
erity iss
laadi ttava</w>
hdi ttava</w>
He ti</w>
tuotan toa</w>
pääss yt</w>
maks un</w>
yksityiskohta iset</w>
hydro ksi
tarka stella</w>
nyky isin</w>
ll äni</w>
Puhe mies</w>
Euroop pala
vaihtoeh toja</w>
li ini</w>
ma ani</w>
yhdistel mä
na ppa
V in
de taan</w>
b is
vi ri
i ppu
mall i</w>
talousarvio on</w>
ku itu
EM EA</w>
ty l
esti in
a mis
sella iset</w>
ohja us
täh tää
R en
Häiv y</w>
Suo si
ajate llut</w>
ponniste lu
10 7</w>
Lu e</w>
HAL TI
yle iset</w>
toiminta suunnitel
edusta jat</w>
oppi a</w>
hypo gly
se ks
pi den
ih y
A d
Men ettel
menetel mät</w>
jatku u</w>
VAI KU
w oo
määrä rahat</w>
Ko ul
eri ä</w>
v ää
Unka rin</w>
elä kke
tiedon annon</w>
Ain akin</w>
osoi ttanut</w>
järjest öt</w>
ensimmä isenä</w>
ei s</w>
B ru
le vittä
kyse isiä</w>
toista iseksi</w>
sydä men</w>
p eh
kuning as</w>
mat ku
europa .e
helve tin</w>
tiedo ksi</w>
kau ppi
farmako kin
paika sta</w>
is eltä</w>
perustu van</w>
d s</w>
huol issani</w>
ha ppo</w>
E- ryhmän</w>
tuon tia</w>
vuoti ai
las kel
tuo hon</w>
Et si
EF TA
toivo a</w>
helv ettiin</w>
K uo
R T
ole vasta</w>
M IT
sano vat</w>
t istä</w>
ET TEL
poli isille</w>
aja ttele
sosiaal inen</w>
TE ET</w>
edusta jien</w>
p r
V il
Halu at</w>
oma sti</w>
ha ku
Komite a</w>
vira sto
säännö stön</w>
al enta
to tuus</w>
myönn ettävä</w>
kusi pää</w>
vastaa vasti</w>
to ksi
ki ire</w>
Kats on</w>
ha mpa
ka lo
u re
T al
kala sta
sy ty
kann usta
tuli vat</w>
b r
asetu sten</w>
12 -
Sel v
Hien o</w>
mme kin</w>
etu käteen</w>
M et
Tälla inen</w>
yhd istää</w>
ole ville</w>
se iso
pääse mme</w>
po ten
matto mien</w>
vaih to</w>
sy ö</w>
- Hyvä</w>
tuleva isuu
ölj yn</w>
In jekti
mise lla</w>
aloi tteita</w>
Al an</w>
Til anne</w>
odo tta
gra mmaa</w>
Aino a</w>
nope ammin</w>
j yr
- Mikä</w>
Ric har
tarkast usten</w>
nimen oma
oikeuden käynti
kuv itella</w>
pa ka
k isi</w>
merkin tö
A c
ris kiä</w>
ää nnön</w>
Tä nne</w>
ohje ita</w>
ka ksinkerta
Al a</w>
O -
puhel in
aluee seen</w>
pyri ttävä</w>
ne ista</w>
me a</w>
käsittele vä</w>
an a
z o
haa voi
Es ityslistalla</w>
kko on</w>
kuulu via</w>
pää sy</w>
tuon t
Saks assa</w>
nouse e</w>
M ä</w>
verkko jen</w>
vapa an</w>
mo men
kuulu van</w>
suur et</w>
pel kää
pä r
Tä mä
ä s
le maan</w>
nan tti</w>
K ene
G mb
anal y
pu ke
si gna
a pu</w>
ne r</w>
mp ana</w>
b esar
ss äsi</w>
muuttu u</w>
T or
henkilö ä</w>
löy si</w>
da sta</w>
se kuntia</w>
Tu en</w>
Käy ttö
ol isimme</w>
sydä me
ei lta</w>
odo tetaan</w>
Ääne stin</w>
Länsi -
O sa</w>
vaara llista</w>
toim en</w>
O s
maase utu
näkökul masta</w>
tutkimu sten</w>
edusta a</w>
k ruu
diab ete
ris kin
usp ensi
pä h
toimi van</w>
todistu s
jo tenkin</w>
ed ot</w>
MER K
ölj y</w>
yhdenmuka ista
f f</w>
sotila s
W il
ito ista</w>
Ha en</w>
otta minen</w>
huu to
Maa talouden</w>
ent inen</w>
yr itän</w>
hava ittiin</w>
pala uttaa</w>
ö r
saavu tettu</w>
raha stojen</w>
kuoll e
Ha ista</w>
Uno hda</w>
Tai dan</w>
an kin</w>
hyväksy misestä</w>
tavaro ita</w>
energial ähte
ka lli
lop eta</w>
ympäristö ön</w>
taa kseen</w>
laa tu</w>
is uo
Vi isi</w>
säädetty jen</w>
En pä</w>
la ki</w>
Pu hel
8 00</w>
näky y</w>
ko ita</w>
Kaik en</w>
d yt</w>
tapahtu mien</w>
menetel mien</w>
V aa
rauha ssa</w>
Tu nne
halti ja</w>
Euro pe
L ei
aa v
Pau l</w>
lento ken
tark kaan</w>
laa jenn
van g
B la
uh ka
l o</w>
turvallisuu desta</w>
s ku
tehokkuu den</w>
Muka va</w>
kap sel
tapo ja</w>
menetel mää</w>
keskimäärä inen</w>
seka isin</w>
sis ar
yksik öt</w>
ku o
muu hun</w>
20 20</w>
vuoropuhel ua</w>
a is
aine ista</w>
mielell äni</w>
vastaano tta
valvonn asta</w>
na ura
matka ilu
ongel maa</w>
lo h
auto on</w>
31. 12.
me r</w>
Lon to
kri isi</w>
Fran c
ole vani</w>
to ni
Rans kassa</w>
teh ty
ki ih
tta vaksi</w>
menettely stä</w>
o mi
alu n</w>
uusi in</w>
Nä itkö</w>
ud ut</w>
natri um
C he
rapor tin</w>
raa tti</w>
san at</w>
Yle inen</w>
suur en
Li ettu
kiit ollinen</w>
2 5.
au toa</w>
is ikin</w>
B .</w>
perusta na</w>
suhte iden</w>
Sa man
teh tyjen</w>
utu neet</w>
se in
k inä</w>
nä ille</w>
pyö ri
määrite llä</w>
erila inen</w>
o ksi</w>
kaupun gissa</w>
g t</w>
näh neet</w>
vielä kään</w>
muka ani</w>
2 6.
llä si</w>
vaatimu stenmuka
- i
pi t</w>
kaks o
Bel gia</w>
kes kuu
EU R</w>
ik enne
10 0
te lo
kala st
yksik ö
laimin lyö
korva ta</w>
re en</w>
mm issa</w>
myr s
ss uhte
b or
Ku iten
is änsä</w>
Pa itsi</w>
ttel ua</w>
au ring
S al
PS E</w>
UU D
mm .</w>
Kyse essä</w>
ystä vi
uno hda</w>
har kin
su p
elä imet</w>
nega tiiv
lap sille</w>
äärimmä isen</w>
hei ja
gi o
luul en</w>
tarkast ellaan</w>
syy ttä
josta in</w>
tieto inen</w>
tarkoi tan</w>
ma sen
tell en</w>
läs nä</w>
lii a
joutu u</w>
ha vai
kuole man</w>
ta mi
kaa p
ik y
c us</w>
oikeu ksista</w>
Len to
huomautu ksia</w>
al e</w>
ed ut</w>
v ut</w>
Voi ko</w>
R os
konferen ssin</w>
me ts
Tee mme</w>
ttä isiin</w>
tote a
viranoma isia</w>
b on
S tre
henkilö itä</w>
al yy
yhd estä</w>
tasa- arvo
f aa
ll enne</w>
ent ise
urhei lu
tekn isten</w>
A ika
py säh
se koi
ki e</w>
las kea</w>
mahdoll isia</w>
ympärist ö</w>
muuta mia</w>
käsittel yyn</w>
mmä ksi</w>
komp onen
- Oletko</w>
U los</w>
e eni</w>
nime ä</w>
tava llista</w>
muuta kin</w>
tau ti</w>
lähestymista pa</w>
Ku r
toimenpite en</w>
teki jöitä</w>
luo n
tul o</w>
tälla iset</w>
saa tte</w>
o massa</w>
Ma g
joulu kuussa</w>
d usta
C hu
toi ve
laa du
ll it</w>
syn tyy</w>
integ ro
maahan muutta
kiinn itettävä</w>
Va st
J oi
Aino astaan</w>
sääntö jen
talo ssa</w>
t ran
utu ksen</w>
asianmuka inen</w>
eriff i</w>
ar va
men eillään</w>
voi tto
vapaa ta</w>
perust ell
U h
valmiste et</w>
kompro mis
kat sel
is on</w>
myöntä mistä</w>
w i
T he
Alanko maat</w>
alue elta</w>
pan naan</w>
kä sitt
Kan sala
sisä isen</w>
vasta av
saa dut</w>
ist ot</w>
saa miseksi</w>
kan tojen</w>
kka iden</w>
Bulgari an</w>
nä ä</w>
arvo stel
ta la
psy ko
ese en
ravin tol
itse stään</w>
avi oli
b ar
Ko k</w>
Ir lanti</w>
ri e
päivä määrä</w>
alo ja</w>
li haa</w>
tuo tteisiin</w>
tulo t</w>
ih m
pakka us
F armako
demokraatt isen</w>
ud en
määrite tään</w>
koh an</w>
y k
periaa tteessa</w>
h ia</w>
jäsenvalti ota</w>
PÄÄTÖ KSEN</w>
tila st
valtu udet</w>
sija sta</w>
se ksiä</w>
Ki inte
kai vo
est e
yhdeks än</w>
huu ma
taulu kko</w>
jo issakin</w>
ma s</w>
Päätö s</w>
si an</w>
ensisija isesti</w>
yhteen sopi
ett änyt</w>
ttä vän</w>
sa telli
ampu a</w>
tap pel
c he</w>
ol koon</w>
tiedon anno
E X
lausu nn
ke itti
esitteli jää</w>
Mi eh
u .
Ki ito
C :n</w>
presiden tin</w>
g h</w>
Sin ulle</w>
H ol
to sta</w>
kansall isella</w>
ky mm
strategi aa</w>
g ene
hankke et</w>
ä nne</w>
h o</w>
A D
P et
o vatko</w>
näl kä</w>
kolleg ani</w>
valti oissa</w>
mahta vaa</w>
Halua tteko</w>
ETA- sopimuksen</w>
mmo l</w>
utu maan</w>
Kan a
mei hin</w>
maks amaan</w>
tarkastel tava</w>
val miste</w>
ra ha</w>
li ber
kasvin suojelu
kolma nne
edistä mään</w>
nim eltä</w>
enna koi
p ist
tte ena</w>
olo gi
S TA
asiakirjo ja</w>
vii ttaa</w>
H au
Li ian</w>
leik kiä</w>
ven älä
SÄ IL
Mar kkin
prosen tilla</w>
Luxembur g</w>
kat se
laati ma</w>
Ku tsu
luok itel
ru isku
Mahta vaa</w>
Ma c
suhteell isen</w>
Milla inen</w>
laa tik
merkitykse llinen</w>
Me itä</w>
b ia</w>
ro k
O tta
yks issä</w>
tasa puol
usko o</w>
ve tää</w>
löytä nyt</w>
ha h
Hai tta
kestä vää</w>
hin taan</w>
ess ani</w>
Hil jaa</w>
o ksen
al issa</w>
vasta vuoro
m man
SÄIL YT
suo jan</w>
puoli lle</w>
es itys</w>
luul in</w>
W as
myyn ti</w>
Pu hu</w>
Lää kä
väär isty
llisyy s</w>
Poi ka</w>
Yhdys vallo
tarke mmin</w>
toim isto</w>
ba ar
Ton y</w>
ga an
o he
hei ko
Kä yn</w>
in strumen
ääne st
in de
tutkimu kseen</w>
Pa k
o ks
Lää ke
e b
ty minen</w>
ko iden</w>
muka isten</w>
tietty ihin</w>
Nä ke
asu in
suor itus
raken ne</w>
viita taan</w>
inno vatiiv
tekn inen</w>
all erg
par an
B A
käyttä mällä</w>
käyttä jien</w>
näyttä vät</w>
halu taan</w>
nim et</w>
ol iko</w>
Lu ettel
tuotan toon</w>
är sy
ttel un</w>
oi tava</w>
tto rit</w>
aihe et</w>
Val ehte
A pua</w>
pa kko
eh an</w>
f on
st un
aal inen</w>
ty ksen</w>
Suo men</w>
hä iv
pito isuuden</w>
käyttä jä</w>
ristirii dassa</w>
ett uun</w>
väki valta
siv ust
jä llä</w>
potila sta</w>
H err
men est
kiinte ät</w>
ter v
e uvo
allekirj oi
tiedo ksi
tehd yssä</w>
hiu kka
tarv its
st re
sano ttu</w>
valmiste tut</w>
la jien</w>
järjestel yt</w>
ett anut</w>
kiinno stunut</w>
lu kee</w>
d l</w>
anta ma</w>
Miet in
yhte isten</w>
o inti</w>
Ju ma
f ir
Oike in</w>
pöy dä
lääkke et</w>
yhten ä</w>
Järjest el
maan viljeli
tul on</w>
stu tkimu
velvoi tteiden</w>
liiken te
istu s
Ky sy</w>
Ni c
mer kkiä</w>
kohd ista</w>
vali koi
NEUVOS TO</w>
määrä ajassa</w>
vaih toa</w>
häiri ö</w>
N YT</w>
P I
lisä tietoja</w>
kiinno stu
vuo delta</w>
itse kin</w>
To isin</w>
k kään</w>
A va
l it
ann ettujen</w>
yhtey den</w>
er ottaa</w>
eurooppala iset</w>
vuoti a
Val vo
T an
valvo a</w>
tulo jen</w>
toimi ttava</w>
yrity ksiin</w>
val itu
tulo ksena</w>
T ää
Ma ke
M oo
kan ut</w>
esitetty jen</w>
sil mällä</w>
Va kuu
tab le
use iden</w>
Mon tako</w>
ra an</w>
muu tetaan</w>
kene llekään</w>
usko nn
sa ali
oikeudell isen</w>
asetu kseen</w>
ss opimuksen</w>
S eis</w>
A da
mit ä
joutu vat</w>
fo r</w>
K A</w>
ti in
mmi lle</w>
4 14</w>
s ara
Tek n
vaihtoeh to</w>
toteu tettu</w>
tyttär eni</w>
isyy teen</w>
EK P
valtion tukea</w>
vuu s
avoimuu tta</w>
onnistu nut</w>
a isia</w>
si r
na a</w>
Kolma nn
ito ssa</w>
tyh mä</w>
E ll
K liin
A .
sää stö
ala a
d ennen</w>
ongel mista</w>
tieto jen
198 9</w>
Tiedä thän</w>
B ill</w>
hilja ttain</w>
tul ta</w>
luott olaito
er ot</w>
kulutta jan
P ri
s kin</w>
S an</w>
oikeudell inen</w>
Ma x</w>
keski määrin</w>
suur ten</w>
san aa</w>
i tali
vankila ssa</w>
vaatimu s</w>
ver on
tis ano
ajo in</w>
tä r
Isä si</w>
var maan
välin een</w>
Ki itän</w>
työ ll
tä mistä</w>
tunte a</w>
Kau pun
L opetta
es ityksen</w>
rai vo
kel ta
ity ksiä</w>
gi e</w>
erity ise
todistu ksen</w>
seuraa vaksi</w>
K r
Valko -
insuliin in</w>
Päi vää</w>
kaupa ssa</w>
investointi en</w>
je k
mis ia</w>
maks ettava</w>
kokemu sta</w>
kiel tää</w>
enemmistö llä</w>
noudatta misen</w>
si li
harjoi ttaa</w>
ryh mäni</w>
Tiedä ttekö</w>
tuo tteille</w>
lentoli ikenteen</w>
l yn</w>
hi taasti</w>
ke st
er oa</w>
o mista</w>
määräraho jen</w>
moni vuot
Ni meni</w>
di gi
D an
es pan
A tlan
a va</w>
te llaan</w>
llisyy ttä</w>
luo kka</w>
Ale x</w>
aluee llisten</w>
uh kaa</w>
ter in</w>
liuo sta</w>
ksen ä</w>
tarkastu ksia</w>
Et kä</w>
pääsy ä</w>
polkumyyn titu
impi en</w>
yksittä isten</w>
vi lta</w>
N L</w>
kas vien</w>
vuoropuhel un</w>
tari ff
puh ta
un kin</w>
muo toi
Itä valta</w>
tapahtu mat</w>
käs ki</w>
tar ttu
te sti</w>
mit kä</w>
Se kä</w>
rapor tti</w>
v itsi</w>
N T
toimiel imet</w>
haitta vaikutukset</w>
aiko jen</w>
siir ro
S mit
var jo
tör mä
mo d
Al ku
Si r</w>
on -
na udan
ttä minen</w>
il et</w>
veto o
M -
hy v
toisi insa</w>
kehy ksen</w>
aluee llisen</w>
LÄÄKE VALMISTEEN</w>
se ll
ne s</w>
vall itse
sisäll yttää</w>
ari o</w>
saa tiin</w>
P T</w>
met r
etu t</w>
sopimu ksella</w>
ratkais uja</w>
tule vien</w>
pi a</w>
oll enkaan</w>
ke si</w>
Pysy kää</w>
KOS KE
läh ten
oike ten</w>
Sara h</w>
ke kaa</w>
hyväksy mistä</w>
lähestymis tapaa</w>
huone eseen</w>
Toi men
menetel män</w>
ka sti</w>
ava ta</w>
arvi o</w>
ohjel miin</w>
o r</w>
la sten
Pi an</w>
Jee sus</w>
te iltä</w>
ed ään</w>
voin ti</w>
valin ta
järjest ö</w>
L E</w>
mu isto
Toimi valta
FB I</w>
utu s
hyl kää
etty jä</w>
Suu rin</w>
investointe ja</w>
a vo
pan i
käytä t</w>
j illa</w>
e ko</w>
lle ja</w>
työllisyy ttä</w>
teho kasta</w>
R aa
J oll
yksimiel isesti</w>
tiety istä</w>
No use</w>
KS I</w>
yhte iseen</w>
maataloustuo tteiden</w>
er y
c an</w>
puhu taan</w>
ER Ä
kuningas kunnassa</w>
hä mä
korva us
g g
Mar y</w>
vahin koa</w>
kan ssanne</w>
koro sta
parha iten</w>
Direktii vi</w>
Was hing
un g</w>
a- anta
kuul e</w>
ri an</w>
Viime inen</w>
h arvo
käytettä vien</w>
to iseksi</w>
lop ut</w>
y n
päätöslausel ma</w>
a ja</w>
energi aa</w>
ho t</w>
Luo nn
Kuiten kin</w>
näkö kohdat</w>
hyväks y</w>
Tunne tko</w>
Ta ppa
Nel jä</w>
ti eli
poten ti
ju ma
a mpi</w>
ma ke
syrj in
En kö</w>
insuliin ia</w>
lisä ttävä</w>
Kre ikka</w>
esiin tyä</w>
O i
pal o
d ik
Hen ry</w>
ka us
aattor i</w>
v isu
ise si</w>
P alaan</w>
10 3</w>
l än
sa sia
teki jöiden</w>
mainitu ssa</w>
se kin</w>
yh mä</w>
ken enkään</w>
Sai t</w>
Pre siden
Kun pa</w>
peru ssopimu
laa ja</w>
ilma sto
V ien</w>
o malla</w>
ja ko
s t</w>
kunn ia</w>
ker taan</w>
Ensimmä isen</w>
ti fi
u. int</w>
halti jan</w>
E llei</w>
sa u
kko a</w>
toteutta maan</w>
le vy
M un
tta malla</w>
200 0-
tte jä</w>
kuu nnella</w>
ee stä</w>
su mma</w>
selke ä</w>
Tans ka</w>
perusta mista</w>
Lähd en</w>
direktii vien</w>
tuho ta</w>
Kerro in</w>
udu mme</w>
toime en</w>
kunn at</w>
b in
u mia</w>
kö ön</w>
hin toja</w>
at si
is än
Yhdistyne essä</w>
vier ai
ni s</w>
jää nyt</w>
ky t
eläi miä</w>
osuu tta</w>
oike an</w>
Jä sen</w>
vienn in</w>
huoma uttaa</w>
toteutta minen</w>
ul an
Kell o</w>
laad ittu</w>
ik ki</w>
ha p
S h
utu mista</w>
ken g
e k
tyttä re
lopu llisen</w>
edellyty ksin</w>
tekn isiä</w>
yhteis markkinoille</w>
Ha e</w>
os altaan</w>
huoma u
vaar a</w>
taloudell isesti</w>
lou na
Tei t</w>
b ee
k ön</w>
do sta</w>
: ta</w>
ba kte
väli ttö
saa tetaan</w>
mui takin</w>
Yhte inen</w>
ans si
vi alla</w>
ne esta</w>
er ää
udu ttava</w>
Ju li
sul kea</w>
inf laati
B r
Har ry</w>
jatke ttava</w>
5 ,
mu ni
yksity isen</w>
vakuu ttaa</w>
ratkais ua</w>
ett yyn</w>
elintarvi kke
Ma t
B on
ra is
kysel y
myynti ä</w>
mukan aan</w>
tuon titu
tin i
otta mista</w>
löy tyi</w>
muu nn
mer ellä</w>
artikla an</w>
Vo isimme</w>
palvelu iden</w>
Myy nti
T V
käyte ttiin</w>
Jul k
mie s
Tä ltä</w>
st it</w>
asianmuka iset</w>
yrity stä</w>
luo kkaan</w>
täytty vät</w>
pane miseksi</w>
main itse
kas voi</w>
Ra y</w>
tun ti</w>
ka ksi
vala isi
luettel oon</w>
on ista</w>
oluo k
toteutta misesta</w>
yhte iset</w>
tt il
tion al</w>
kyvy ttömyy
rak kau
idioo tti</w>
Yle iset</w>
itett yä</w>
vasta ista</w>
raken taa</w>
edisty stä</w>
c el
tarkistu s</w>
anal ys
ymmärr än</w>
E P
aati o</w>
In f
hi ll
operaati on</w>
päättä vä
paranta maan</w>
3 .</w>
u p
Val mi
h öl
talousarvi o</w>
ess ori</w>
iss ut</w>
tu i
ta se
raporto itu</w>
teke mä
ed unsaa
ä stä</w>
sovelta miseksi</w>
e to
vä ri
infrastruktu urin</w>
Li e
nyky inen</w>
po eti
huol issaan</w>
Kiin asta</w>
Jimm y</w>
seura uksia</w>
o hi
Säil ytä</w>
t it
itse äni</w>
s ka
tuleva isuutta</w>
pysä yttää</w>
keskustel uun</w>
K -
tuotta jat</w>
Gmb H</w>
a f
myönte inen</w>
myöhä istä</w>
a min
nä t</w>
käytettä essä</w>
hd on</w>
a teri
sa tunn
llo a</w>
tu ksi</w>
Sve itsin</w>
ken ties</w>
het k
arvi on</w>
pi ha
perust eita</w>
juu ri
c ar
6 ,
Eurooppa an</w>
an ka
rann ikko
Lähd e</w>
neuvottelu issa</w>
aiheutta vat</w>
ke et</w>
Ra kenn
pa ss
turva paikka
käsitel ty</w>
määrä ajan</w>
osoi tti</w>
kymm ene
toi t</w>
rekisterö i
ole vasi</w>
Ase tus</w>
keski ttyä</w>
kun taan</w>
pää ministeri</w>
työ ssä</w>
t isi</w>
muu sta</w>
inter ne
Pan e</w>
auto ssa</w>
vr k</w>
toimi valta</w>
luo kse</w>
a k
ki itän</w>
mu isti
a isen</w>
teho kkaan</w>
margin aal
tied ustel
liikke eseen
Tun tuu</w>
Ö N</w>
tarkoite tuista</w>
b en
raken teen</w>
kilpailu kyvyn</w>
toimi vien</w>
een sa</w>
ma ssaan</w>
Hen g
ala kohta
kan so
jou kko</w>
le vi
saman lainen</w>
arvo inen</w>
Mar i
vasta uksen</w>
W h
tava nnut</w>
sää tää</w>
alo ite</w>
vasta ttava</w>
pel iä</w>
kuole maa</w>
el imet</w>
vaati vat</w>
rii dan
ee si</w>
syö mään</w>
nope u
istu sta</w>
ilmoi ttanut</w>
lau ta</w>
käy tti</w>
Ri ittää</w>
tetta vissa</w>
Ruot si</w>
tro poi
naapu ri
huo neen</w>
ase et</w>
metab oli
ll ista
Slovaki an</w>
c in</w>
ää li
In su
Sin usta</w>
r iste
ti eltä</w>
sil ta</w>
Kuu nte
tava llisesti</w>
laajentu misen</w>
vi lla
tunte e</w>
etu sija
ni vel
o tsi
Muu ta
00 -
usea mman</w>
le vo
paikko ja</w>
Tu on</w>
st ikin</w>
mar in</w>
itse lleen</w>
seka komitean</w>
V an</w>
Pää stä
so vi</w>
u r</w>
sija itsee</w>
kaikki aan</w>
potila s</w>
myöh ään</w>
ir tisano
suos itellaan</w>
edusta jan</w>
ke vy
kans an</w>
kapasite etin</w>
edell ytetään</w>
pää tä</w>
sin u
saa ttoi</w>
nukku a</w>
lää k
a to
Kro ati
mp yy
Raho itus
uu den
eh tojen</w>
Jo kin</w>
pa ll
koulu ssa</w>
Ar vaa</w>
hetke ksi</w>
kolme en</w>
ongel miin</w>
käytettä vät</w>
direktii viksi</w>
P L</w>
kyky ä</w>
virhe en</w>
ra ja</w>
Kuul itko</w>
talousarvio sta</w>
Ji m</w>
o I
kirj oihin</w>
ite llen</w>
ku vat</w>
so ita</w>
lyhy esti</w>
vä itti</w>
lo istava</w>
O H
uu dessa</w>
huuma usa
odo ttanut</w>
my stä</w>
kokonais määrä</w>
väl issä</w>
aika inen</w>
enemm istö</w>
tunten ut</w>
aiko ja</w>
Lap set</w>
Mene mme</w>
va kauden</w>
men nyttä</w>
k risti
itu r
sel viä</w>
pan kki</w>
3 2
sy mb
heng en</w>
aine ena</w>
ul an</w>
ku ssa</w>
vasta inen</w>
korva a
päätö ksestä</w>
toimi va</w>
sis ko
E nna
tur vo
päätö kseksi</w>
kulutta ja
Ni ck</w>
saira alaan</w>
hall ussa</w>
Talo us-</w>
anta mista</w>
ba viri
si lla</w>
puhu mme</w>
har ha
perus oikeus
ky r
ul kos
ki ro
Kä y</w>
J opa</w>
lääkevalmiste iden</w>
Mietinn össä</w>
val itetta
pi ll
S Ä</w>
len tä
ent isen</w>
pidä mme</w>
tied ossa</w>
te ista</w>
lopul l</w>
läs nä
la kia</w>
iton ta</w>
Tuo ssa</w>
Erä s</w>
kestä vä</w>
c u
ni meni</w>
koro stetaan</w>
Pi en
Jul kis
l et</w>
par in</w>
tro mb
lipu n</w>
tt er
menettel yyn</w>
tä llöin</w>
e ksi
- Tämä</w>
kierr ä
heng issä</w>
oi maan</w>
c or
s ho
TU O
enn en
kierro ksen</w>
edusta vat</w>
LÄÄ K
täy tä</w>
pien et</w>
tun tui</w>
kruu n
10 4</w>
valko inen</w>
muu lla</w>
raho ja</w>
S p
so t
nor maali
k ite
Lopetta kaa</w>
- P
loppu u</w>
y er</w>
hiu kan</w>
lu vussa</w>
na h
J es
ni l
S iten</w>
e p
B N</w>
jä tteiden</w>
Sin ut</w>
vakuu ttunut</w>
tie llä</w>
työnteki jät</w>
ast i
ÄÄ N</w>
hoido sta</w>
h ua</w>
kulutta jille</w>
muu kala
aa mi
Ra ken
tasa paino</w>
val tava</w>
täysimäärä isesti</w>
suos itella</w>
kiinno sta</w>
epäile mättä</w>
Et si</w>
nope a</w>
nuor et</w>
I S</w>
sopimu ksiin</w>
3 -</w>
joh ti</w>
S tan
analy so
neuvottel uja</w>
kal a</w>
valti oita</w>
tarkka ili
Pal vel
3 1.</w>
henkilö ille</w>
ast e</w>
F lo
puol is
toteutta miseksi</w>
t hu
ko vaa</w>
kol mi
Van he
T T
ris kien</w>
prose ss
op p
Ne w
mä sti</w>
toimivalta iset</w>
n än</w>
hui ja
lisää minen</w>
odo ttavat</w>
M usta
Mar tin</w>
jää dy
Vali tan</w>
sel vä
puu ttua</w>
val inta</w>
loppu a</w>
S w
voi tta
Yks ity
6 0
teki jö
käytettä väksi</w>
e lle
tapahtu neen</w>
muuto ksista</w>
Itali assa</w>
ks a
löyd ettävä</w>
- 2-
syrj i
valmiste le
iku isesti</w>
harvo in</w>
en kel
F er
kirja an</w>
pal estiin
voi da
Europe an</w>
ava in
raho itustu
llis ina</w>
hä viä
di e
- alan</w>
kontro ll
c ol
sil mät</w>
perusta n</w>
vahvista minen</w>
johta ja
sy yt</w>
pid ettiin</w>
ju ttua</w>
Sa itko</w>
ol en
mis taan</w>
kerto maan</w>
hy my
neuvo a-anta
ta poi
va tkin</w>
hemoglobi ini
Häne stä</w>
kke essa</w>
h itto</w>
perust ettu</w>
A pu
Bo b</w>
E L</w>
vast ustaa</w>
mon issa</w>
al tti
tel u</w>
Liike ttä</w>
r ikka
man in</w>
tutkimusajan jakson</w>
pro te
- 9
Py sty
Bar ro
mu kset</w>
lop un</w>
lain a
kokoon tu
a .</w>
koul un</w>
rajo itukset</w>
tuont itodistu
kyse iseen</w>
T re
päivi ttäin</w>
kal en
lou kkau
Il m
C .</w>
W est
tavo itetta</w>
lääkin tä
itä tkö</w>
Mi etin</w>
vaikutu ksesta</w>
vaa tteet</w>
utu misen</w>
kiinti öiden</w>
ar e
3 9
pää s
u sti</w>
erityiss äännö
ul e
kai va
ih ana</w>
J as
rakenneraha stojen</w>
Lu c
oike aan</w>
häiri ö
päätöksen teko
ma kro
esite llä</w>
C an
ks elta</w>
do t</w>
ra joissa</w>
päätöslausel massa</w>
D O
Pain u</w>
CN- koodi</w>
kesä kuussa</w>
Mu ita</w>
siir retään</w>
löy sin</w>
usko tta
kirj een</w>
ta pan
tty nyt</w>
kertomu ksessa</w>
tuke maan</w>
teke misestä</w>
asia mies</w>
saavu tetaan</w>
tu issa</w>
äi di
d or
etta essa</w>
su b
O P
oma isuuden</w>
Til in
oitta kaa</w>
pakkau s</w>
vie tä
Pi eni</w>
helve tissä</w>
direktii villä</w>
ite ta</w>
k m</w>
is a
d ö
F re
lääke ttä</w>
huo llon</w>
soke ria</w>
lä mpi
tyttö ä</w>
sa vu
R uu
teke vän</w>
jäsenvalti oista</w>
äs ken</w>
tervey teen</w>
kiinno staa</w>
syrjä yty
kan ssamme</w>
Portug ali</w>
KA IS
jen sa</w>
g ol
vel j
d ra
todistu s</w>
kor tti</w>
Si in
K oi
1 1
asu nto
parlamen taar
Nu o</w>
ve ty
han ketta</w>
nnel kaa</w>
Pä rj
ko men
johd u</w>
kahd essa</w>
Yhte en
m y</w>
avoimuu den</w>
Luo jan</w>
sän g
käynn isty
teh o</w>
st olla</w>
ju ri</w>
G ran
is -</w>
che l</w>
kun in
etto man</w>
ste r</w>
mm etti</w>
sti mme</w>
yhtey ksiä</w>
pin ta-
ll isin</w>
l ista</w>
Kolmann eksi</w>
kor tin</w>
julk inen</w>
valmis tus</w>
san an</w>
muu tkin</w>
St ras
ll isille</w>
hd y</w>
by rok
J AN</w>
tus -</w>
tarjo avat</w>
TA MIS
lääkär isi</w>
luu lee</w>
keuh ko
unioni lle</w>
interven tio
näy ttöä</w>
pel i
tap an</w>
kompro missi
syrj innän</w>
D av
so ta</w>
arvio in
kiel ellä</w>
valti ota</w>
Ku ole
Mietin tö</w>
Le on
hyvä stä</w>
ke sto</w>
m eiden</w>
maatalous politiikan</w>
Saa tte</w>
tto on</w>
oso ituksia</w>
päivä tyllä</w>
Y llä
la kkau
Hoi dan</w>
H IV
Äit ini</w>
pila antu
ih me</w>
vaara llinen</w>
mer kki
to t</w>
vähi mmä
su per
tutkimu s-</w>
palvel u</w>
et u</w>
AS -
mi ett
ito a</w>
L il
I X</w>
vajaa toimintaa</w>
Ki i
suuri mman</w>
pan ee</w>
ase tettava</w>
Make do
s h
dell yty
mie ll
Dann y</w>
pid että</w>
luo vutu
anta minen</w>
hankke isiin</w>
sor men
sääde tyn</w>
Ann oin</w>
köyhyy den</w>
ll ien</w>
puh etta</w>
pal annut</w>
ko li
tä misestä</w>
rajo ja</w>
ni lla</w>
tuomioistuime ssa</w>
kke eseen</w>
Autta kaa</w>
Itä- Euroopan</w>
e y</w>
Pit ääkö</w>
Vie kää</w>
Eurooppa- neuvosto</w>
c kin</w>
he pati
rajo itu
laati i</w>
ken raali</w>
O tetaan</w>
upe a</w>
mahdoll isen</w>
riko llisuuden</w>
men oja</w>
suor itettava</w>
tt en</w>
min äkään</w>
A LI
F is
M au
suure sti</w>
4 .</w>
äit insä</w>
kyllä sty
10 9</w>
pas ka
mei ltä</w>
yr ität</w>
tarko ittanut</w>
rinna kka
ne eseen</w>
tapahd u</w>
päi vittä
in ho
luv ut</w>
c ha
mieh istön</w>
kirj eellä</w>
h tä
tunn et</w>
Suo mi</w>
n ei
isti ä</w>
ka tosi</w>
isto on</w>
in it</w>
di lla</w>
Stras bour
Richar d</w>
Ase tuksessa</w>
P uu
- Olet</w>
pyy nnö
por ta
päästö jä</w>
isuu det</w>
to iset</w>
ki ir
Ko ti
iho ttu
liikku vuus</w>
van hen
vaal ien</w>
K ulu
ain ut
sihte er
ly kä
dy naa
oso itettava</w>
nyky isten</w>
raken teiden</w>
hei ttää</w>
f lu
kohta isesti</w>
vasta -</w>
O K
foor u
tilante issa</w>
ho mo
tehd yllä</w>
pin ta
To in</w>
juh lat</w>
Elä in
inf luen
kai paa</w>
näkö kohtia</w>
jäl kiä</w>
Päi vä
Nä istä</w>
mä ttömyy
tarjous kilpailu
vahviste tut</w>
harjoitta jan</w>
isyy s
vir tsa
se ikat</w>
Vi haan</w>
Huo menna</w>
kaver it</w>
tu sti</w>
sano ttava</w>
rahasto sta</w>
sai mme</w>
po istetaan</w>
D en
selvi ää</w>
maks ua</w>
Puhu in</w>
ni ksi</w>
Vo isit</w>
prose ssissa</w>
haavoi ttu
sy itä</w>
Mel kein</w>
arvio itu</w>
yleis ön</w>
y ö</w>
29 9</w>
huomautu kset</w>
entise stään</w>
päin vastoin</w>
määräraho ja</w>
mist oi
ag no
puheenvuo ron</w>
o tsa
luo maan</w>
tte ina</w>
mon o
Hei ppa</w>
Ch rist
va tsa
ttel et</w>
li iton</w>
pu tki
laitt eita</w>
me ssa</w>
tä hd
pi en</w>
p ra
sa moja</w>
mi an</w>
väl isessä</w>
valvonn assa</w>
stu i</w>
katso vat</w>
saata vissa</w>
Ty ttö</w>
jäl tä</w>
pysty nyt</w>
valti ossa</w>
mietintö ön</w>
etta vaa</w>
MERK INN
pää stää</w>
Koh ta</w>
epäil y
pu to
ise mme</w>
tiedo ista</w>
itu ja</w>
toim itettu</w>
itte itä</w>
kiinte istö
todiste et</w>
kuole ma</w>
O u
koh talo
Tä llöin</w>
her kky
vahv isti</w>
pit kin</w>
a voin</w>
Per usta
va in
noudatta mista</w>
pä rj
P ur
t nantti</w>
La us
e vä
tärke än</w>
keskuspan kki</w>
h ut</w>
ehdo tetaan</w>
tuoma ri</w>
kai pa
g a</w>
anta ina</w>
to isesta</w>
ri ksi</w>
verko ston</w>
tarpe isiin</w>
MERKINN ÄT</w>
las ku</w>
työ järjest
tu keen</w>
A F
a j
osoi ttaneet</w>
täyd enny
edell isen</w>
On han</w>
teksti ili
ilma istu
suos ituksia</w>
säädetty jä</w>
prose ssiin</w>
tahd o</w>
mur ha</w>
perä ssä</w>
yle isten</w>
lehd istö
JO IT
Va staa</w>
Par as</w>
pää n
vapau ksien</w>
armei jan</w>
ul os
johd an
kan in</w>
potila ita</w>
oli i
analyy si</w>
Je p</w>
ke itä</w>
ttee ksi</w>
re alist
onnistu u</w>
JO S</w>
on e</w>
mise llä</w>
pe su
Yl ös</w>
ri baviri
tulo ksista</w>
ust i
in kö</w>
ra kka
tarkast us</w>
sis a
kysymy sten</w>
vihdo in</w>
R is
tod ennut</w>
Z a
- Selvä</w>
ra ke
jä ttänyt</w>
yhte ys
kohte li
Inti an</w>
D NA
- Kuka</w>
mu a</w>
y -
S oi
mil ta</w>
kä det</w>
jo ssakin</w>
Elin tarvi
kuul in</w>
yks istä</w>
ene minen</w>
vi haa</w>
ERITY ISET</w>
u ko</w>
ase tettu</w>
lah ja</w>
Ol isiko</w>
Kiito ksia</w>
La tin
PP E</w>
L or
ob je
k lu
ase maan</w>
vai hdo
si an
osallistu i</w>
pit u
Tš ekin</w>
talou tta</w>
pai koi
vasta si</w>
in yt</w>
suju u</w>
mutt en</w>
oid un</w>
halu sit</w>
mo inen</w>
ty yli</w>
Pas kat</w>
en kö</w>
an toa</w>
k öy
E dellinen</w>
tarkastu kset</w>
käy dään</w>
Ro bert</w>
määrä tty</w>
Tuo ta</w>
vaihd on</w>
laatu inen</w>
Y LE
y tään</w>
tytä r
Mitä s</w>
jar r
Y M
Äit isi</w>
muutta minen</w>
kala stuksen</w>
euro on</w>
Koso von</w>
muu nto
Y ri
ve sillä</w>
vapa uttaa</w>
perust e</w>
m 2</w>
kein ot</w>
VAIKU TTA
sano ttuna</w>
nn assa</w>
luo daan</w>
li o
kuule mis
je mme</w>
hull ua</w>
ol aa
Ta hdon</w>
ko ista</w>
ke mia</w>
kos y
velje si</w>
käy n
vah ve
kon ta
st il
osi tta
Saa mme</w>
demok ra
väl isestä</w>
lainsää tä
Ir lannissa</w>
ön sä</w>
erila iset</w>
kohtel un</w>
voima kas</w>
par i
hakemu sten</w>
er ia</w>
Venä jä</w>
rapor toi
lääkäri llesi</w>
h t
E le
s ää</w>
edell een
enn enkin</w>
kutsu u</w>
kansainväl isiä</w>
kirja llisesti</w>
a -</w>
tarkastu ksen</w>
Ke itä</w>
tse go
äänesty ksen</w>
riippumatto muu
huoma nnut</w>
p o</w>
ministeri ön</w>
elä mässä</w>
ministe rin</w>
todell isen</w>
lopu llisesti</w>
- On</w>
lyhy en</w>
j usin</w>
suo ja</w>
mat kaan</w>
ks ilta</w>
ess äni</w>
o maksu
3 8
neljä nn
da mme</w>
tu ettava</w>
toimi valtaa</w>
siir to</w>
pel kkää</w>
laajen taa</w>
13 6</w>
kke ja</w>
L AS
hyväksy ntää</w>
yhti öt</w>
pääsy n</w>
pare mman</w>
Yle ensä</w>
Al b
vahviste ttuja</w>
v u</w>
Jo r
rahoi ttaa</w>
osa kke
jouko t</w>
Her tsego
vasta usta</w>
et n
ensi ksi</w>
puu ttee
muu ssa</w>
saata ville</w>
insuliin i
Lähi -i
ken sä</w>
sää ti
päivä llä</w>
merki t</w>
To mmy</w>
valmis tukseen</w>
käyttööno tto</w>
kilpailukyky ä</w>
seuran ta</w>
luv ulla</w>
tu lleet</w>
mi ini</w>
luott oluok
Talo u
tava llinen</w>
suor itetaan</w>
pal uu
puhe en</w>
juu ta
keske isiä</w>
jää hd
hyväksy mään</w>
Tur kki</w>
alkoh oli
Se pä</w>
edellyttä vät</w>
Ber liin
u ha
tosiasia llisesti</w>
va sten</w>
K el
väli ttää</w>
uh kaa
sääd ettävä</w>
kulttuu rin</w>
Tar ko
TA VA</w>
Britann ian</w>
lisään tynyt</w>
D ou
tull ien</w>
tyyppi ä</w>
toissija isuus
w ard</w>
yrity kselle</w>
pen ha
tuke vat</w>
raka s</w>
min i
apu asi</w>
ty ksi</w>
ohj eiden</w>
un ta
jalo sta
S har
kann ustaa</w>
tyytyvä isiä</w>
A ust
ras kauden</w>
K öö
tapahtu mia</w>
ttele maan</w>
mmi lla</w>
kär sin
kie lle
kahd ella</w>
jäsen ille</w>
ris kit</w>
ri pu
Mar o
käsi ttää</w>
ite d</w>
saa dakseen</w>
aio mme</w>
yllä tys</w>
b ent
or gaan
gene ett
Pel a
peruste ista</w>
ha ppo
leik ki
Tus kin</w>
ty issä</w>
arvo on</w>
vasta uksia</w>
L A</w>
la sta
sano ja</w>
Us ko</w>
- ohjelman</w>
vä i
ta pe
äänesty ksessä</w>
asi ain
Kuu letko</w>
4- 0
tu un</w>
torjun ta
standar dien</w>
tieteell isen</w>
tavoitte isiin</w>
kysymyks issä</w>
b ra
merkin tä</w>
F I-
markkina -
van han</w>
yri ttävät</w>
a van</w>
n kin</w>
I .
To te
H erä
Köö penha
Kolma s</w>
tään kö</w>
työnteki jö
kilo metriä</w>
Py st
T änä</w>
in han</w>
ve toa</w>
L yh
ö ön</w>
mo raal
eurooppala isia</w>
N imi</w>
Sa isinko</w>
stä mme</w>
B S
yksin ä
pyy detään</w>
A lle
vi il
si um
w n</w>
tarjous kilpailun</w>
h yy
erä iden</w>
toden ta
po tkut</w>
yllä pitä
v ääri
paha sti</w>
ill an</w>
jar ru
sairasta villa</w>
tote an</w>
lähd össä</w>
gre ssi
c hin</w>
mutt ei</w>
lento kone
satu ttaa</w>
kä tesi</w>
di plo
Ar thu
Tur pa</w>
198 7</w>
ts issa</w>
ma kuu
kan teen</w>
len tää</w>
Seura avat</w>
tarkoitett uihin</w>
1. 1.
H yö
la st
w ar
pa ks
äänesty s</w>
yle iseen</w>
staa peli</w>
si ka
seuraa vassa</w>
g i</w>
Kir ja
kulu tus</w>
at ri
krite erit</w>
hti ä</w>
tää kö</w>
tie teen</w>
te la
C D
tuleva isuus</w>
pu ja</w>
pakkausselo ste</w>
tera peu
ai d
rin euvo
hyväksy tyn</w>
luo minen</w>
löytä mään</w>
a mpaa</w>
o ton</w>
li ka
Pa hoi
väh enny
kehity ksestä</w>
koko el
päästä vä</w>
Tarka stel
op pin
kirjo jen</w>
tunn iste
sän ky
lä pä
katsa us</w>
And re
löy dämme</w>
Roma ni
puhel in</w>
us kon
Kanna tan</w>
usea mmin</w>
se ikka</w>
U H
Ke ho
mi o</w>
E gy
tulo hinnan</w>
taa taan</w>
heik ko</w>
ika ssa</w>
mall ia</w>
tasa painon</w>
sel ä
pu itteet</w>
hd ys</w>
Bill y</w>
15 .</w>
A I
lähestymista van</w>
elä m
auto sta</w>
k kos
-- -</w>
hallin toa</w>
use imm
väliaika ista</w>
si dos
maa mme</w>
s un</w>
perusta minen</w>
istu nnon</w>
s itkö</w>
yle isiä</w>
na isille</w>
lo o
jaks ossa</w>
Per he
5 .</w>
tutki ttava</w>
säädetty ä</w>
nel i
Luxembur gin</w>
vahvista mista</w>
työnteki jöitä</w>
dio visu
toteu te
luo nto
kur ssi
VII ME
j un</w>
tutu stu
a tar</w>
1 1.</w>
komite aa</w>
ta it
puu te</w>
viin iä</w>
us itoumu
al ki
jo llekin</w>
henkilökohta isesti</w>
Käy tä
ist oimin
van ut</w>
t ite
ken en</w>
rav inno
poeti ini</w>
mon sa</w>
huoma ttavia</w>
ist oi
äi d
Vä l
ma inen</w>
huo maa</w>
a ksemme</w>
ttä essä</w>
tilintarkastustuomioistu imen</w>
kat s
sol ujen</w>
jää mien</w>
S opimuksen</w>
ryh mi
perustus lain</w>
jatke taan</w>
rau haa</w>
Ki el
määr itettävä</w>
Oike asti</w>
tutkin ta
Näke miin</w>
j ina</w>
to in</w>
koro sti</w>
Hu ole
sisäll ön</w>
os opimu
ti ä</w>
ve llä</w>
ku ri</w>
toimi tti</w>
myönte isenä</w>
J en
ro n
parha at</w>
puolu e
K :n</w>
v -
käyttööno ttoa</w>
joukko jen</w>
Espan jassa</w>
taan pa</w>
san oivat</w>
ika sta</w>
f un
ih on
hen k
o tat</w>
täys istunnossa</w>
perustel tua</w>
oikeusasia miehen</w>
PA R
väki vallan</w>
määrä ys
op era
syy ll
ehdotu kseen</w>
no u
er otta
F I</w>
kaupa sta</w>
mur ta
sisältä vien</w>
on osoituksia</w>
mene ty
valla lle</w>
G lo
asian tunte
na mi
ty li
tu eksi</w>
osa -
käsiteltä vänä</w>
miljar din</w>
alka vat</w>
S to
istu nto
esi ttel
Par i</w>
teki jän
c ia</w>
K ali
Enna kko
z a</w>
tei mme</w>
nuo ria</w>
mole mpien</w>
oikeudell isten</w>
direktii viin</w>
lin tu
jättä minen</w>
doll arin</w>
ERITYISVAROIT US</w>
täy si</w>
per ään</w>
O I
ta ku
kemi ka
Tarvitse t</w>
muu tti</w>
as ua</w>
is min</w>
na lle</w>
hu vi
mi ettiä</w>
op ro
lähe lle</w>
lainsäädäntö ön</w>
Puhu taan</w>
A T</w>
tos ise
moni puol
sol u
keskuu dessa</w>
kor ru
6 .</w>
sy r
kehy s</w>
k äänty
Käy tä</w>
myöntä mis
ka mp
al ia</w>
A C
toimin tojen</w>
ra tsa
ansa itse
G or
määrä aika</w>
suojele miseksi</w>
säh kön</w>
WTO :n</w>
st ettiin</w>
- Missä</w>
sel ven
laske ttu</w>
julk ista</w>
imm istä</w>
U E</w>
ryh miä</w>
Valmi ina</w>
Eri ttäin</w>
j ala
käy nti</w>
se kunn
cto r</w>
kuul ua</w>
kolme sta</w>
T Y</w>
aati o
B re
Hel ve
itt o
it h</w>
kyl mä</w>
rj an
ppi a</w>
d -
Ilma -alu
Sin äkö</w>
yhteisö t</w>
liikku vuuden</w>
de s
pa llon</w>
toiminta lin
suuntavii vo
suo ra</w>
al us
G ab
ran ni
T US
30 .</w>
tärke intä</w>
talousarvio ta</w>
G er
Bal kanin</w>
sy nte
Ira kin</w>
ou to</w>
ne ena</w>
Ma tka
F red
Erity is
ll anne</w>
heik kene
Joh nny</w>
ket jua</w>
jau he
seitse mä
st ra
jalo st
tapa usta</w>
huole hdittava</w>
istä si</w>
Vi ite</w>
ka ssa
täy den</w>
ttää kseen</w>
val ehd
sopi vat</w>
muutta mista</w>
vi s</w>
varmuu den</w>
S he
saa tujen</w>
ajan kohtana</w>
Ra ha
toimen pide
B :n</w>
siirr on</w>
toteutta miseen</w>
ka lle</w>
a h</w>
1 10</w>
itett ua</w>
Kerto kaa</w>
para met
aihe ita</w>
aie mpaa</w>
na ts
huippu kokouksessa</w>
oi kais
Onn ittel
Ei pä</w>
9 0
B R
o ra
jakel u
fi el
tavo ite
pel ottaa</w>
häiri öitä</w>
arvio innissa</w>
tekn istä</w>
tunn ustaa</w>
g l
to istaa</w>
johta nut</w>
y ti
i ja</w>
val ossa</w>
toisin aan</w>
polku myynnin</w>
p istä
D el
ko inen</w>
kasvi huone
päivä n
näy tän</w>
aika ista</w>
t .</w>
rahoitus näky
qu e</w>
näy te
T ele
kuu kausi</w>
anta isi</w>
pää sen</w>
kar ko
ette kö</w>
Uni oni</w>
T ro
te es
t ri</w>
Ra por
tu illa</w>
po istettu</w>
käsitel tävä</w>
osapuol en</w>
ise mpaa</w>
TAR P
luo kseni</w>
väsy nyt</w>
nous u</w>
Tule tko</w>
es t</w>
kann ut</w>
hir ve
tt ilä
alue isiin</w>
valmis tu
työ n
riittä vät</w>
noudatta minen</w>
ku lo
av en
H Ä
itust en
soi tan</w>
herä ttää</w>
Lis ää</w>
ote ta</w>
x i
seur antaa</w>
F ar
nuo re
ti oiden</w>
sisä inen</w>
ehdotu sten</w>
tieto isia</w>
al kanut</w>
Käs kin</w>
o itu</w>
IS BN</w>
y tti</w>
nne s</w>
hall u
- Ja</w>
Kaik kia</w>
olema ssaol
jää vät</w>
pan kkien</w>
hiilidioksi di
isi mmeko</w>
luo nne</w>
M itään</w>
estä miseksi</w>
per janta
S ol
sairaala ssa</w>
noudatta matta</w>
itse llesi</w>
osallistu vien</w>
oimen piteiden</w>
ki vat</w>
kansainväl iset</w>
c en</w>
ne st
l inn
pakkau ksessa</w>
ih oi
tila isuutta</w>
kerro t</w>
Ku vi
glu koo
luetel tujen</w>
koheesi o
demokrati aa</w>
a vain</w>
tunn istaa</w>
tull ia</w>
palvel uksen</w>
va mpyy
m s</w>
käsittel ee</w>
Yhte ensä</w>
g as
tarp eet</w>
hd e
va ura
ust oimin
tii vii
V äär
ku la
oikeu ksiin</w>
täytäntöönpano on</w>
varmaan kin</w>
tarkastel un</w>
llisuu s
Kä det</w>
Ha ki
kuiva -</w>
su k
par ane
vaka vaa</w>
ehdotu ksessa</w>
näh tä
van ke
Pas ka</w>
v ei
ongel ma
sel o
O so
digi taal
M A</w>
merk kinä</w>
se ikkoja</w>
C ent
kä vi
Na iset</w>
Mi llä</w>
ryh ti
minkään laista</w>
vaihtoeh toa</w>
a te
liikku vuutta</w>
tie sit</w>
Ti esi
pist os
uudistu ksen</w>
liitt e
kliin isissä</w>
ha uda
uh ka</w>
välttämä tön</w>
ilma antu
verko sto
e jä</w>
jäsenvalti oihin</w>
teoll isuus</w>
sääd etty</w>
resur ssien</w>
d rin
palvelu ista</w>
oso itus</w>
taiste lla</w>
kä dessä</w>
kohtel ua</w>
ampu i</w>
vai va
pela ta</w>
ää kseen</w>
lähd emme</w>
kun toon</w>
li en</w>
12 5</w>
van hoja</w>
ryh mää</w>
osa ll
mä mme</w>
M eille</w>
olan tsapi
ll ia</w>
elämä si</w>
sel i
it yö
erity iset</w>
TE H
ho a</w>
E ne
Kööpenha min
puheenjohta jana</w>
f ia</w>
määritel tävä</w>
itu ksesta</w>
sanka ri</w>
käynn iste
ennakko ratkaisu
teho a</w>
mel ää
liitty viin</w>
injekti o
Suu nnitel
työskenne llä</w>
TARP EEN</w>
vi ini
tti met</w>
kilo metrin</w>
kas vanut</w>
ruu miin</w>
ime lle</w>
enn alta
Ky mmen
turva a
vau htia</w>
lento ase
sa al
tarkoitu kseen</w>
is eni</w>
vaal it</w>
jouko ssa</w>
N O
rekisterö inti
te ja</w>
S us
plan ee
Las ke</w>
kyl mä
vaike uksissa</w>
Var masti</w>
myöntä misestä</w>
asianmuka isia</w>
sy dän</w>
O saa
Ch ris</w>
pit o</w>
tte issa</w>
jäte tty</w>
isi l
Yhdysvallo issa</w>
di agno
18 0</w>
puole stani</w>
mp ikin</w>
huolehti i</w>
Pa tri
Kä vin</w>
VIIME INEN</w>
liik enne</w>
el im
ko ste
ki pe
vin nyt</w>
sääntöjen vasta
ik kun
näytte eno
Jon kun</w>
pako on</w>
G ri
kustann uksiin</w>
Uno hd
E ur
on an</w>
yhteen veto</w>
pel in</w>
lle r</w>
hall itukset</w>
kiir että</w>
1, 5</w>
d u</w>
Näy tän</w>
etsi i</w>
Syn tymä
s uspensi
van ha
ke sto
korva uksen</w>
tuotta ja</w>
perh että</w>
johta vat</w>
is la
O tin</w>
uu sista</w>
ky sy</w>
oikeudell ista</w>
kirjan pito
anta neet</w>
saata isiin</w>
taulu kon</w>
EU: hun</w>
sto distu
ss uo
kohd e</w>
syy ttää</w>
huume ita</w>
vel jen
tran sa
ku us
j ilta</w>
tau tia</w>
it os
Ma an
tehokka ita</w>
vaa ti</w>
ol itte</w>
est eitä</w>
S tar
määr istä</w>
Kore an</w>
poikke us</w>
h anoma
er s</w>
U r
Suo s
is si
nähd ään</w>
per inn
markkinoi lta</w>
sii pika
tau tien</w>
suunnitel mia</w>
den sa</w>
aiheutu u</w>
pää set</w>
Char les</w>
ro man
koi vat</w>
potenti aal
harvin aiset</w>
Puheen johtaja
täy tyi</w>
il o</w>
tavoitte ista</w>
Mie ti</w>
20 -
CO -9
7 ,
- Tiedän</w>
valmiste iden</w>
kohd e
istu maan</w>
tarjo uksen</w>
nouda ttavat</w>
anta sa
Nä illä</w>
menesty kse
Ki itti</w>
tonn ika
kolme a</w>
vähentä miseksi</w>
voi mien</w>
Vah v
ja etaan</w>
no usta</w>
miehe si</w>
ke i
lain at</w>
Kuu nnelkaa</w>
Iran in</w>
kuul tuaan</w>
tarv innut</w>
T eet</w>
hall itusta</w>
C as
llis issa</w>
kirja sta</w>
ery tropoi
W ar
sti vat</w>
kiito ksia</w>
Tarkoi tatko</w>
luettel ossa</w>
vi ttua</w>
seura ukset</w>
poliitt isesti</w>
an gio
re et</w>
koul uun</w>
ik äänty
voimassaol on</w>
vir us
täyd enn
otta miseksi</w>
vapaa ksi</w>
ni e</w>
P ir
ty r
suojel uun</w>
sitoutu nut</w>
kemi kaal
M ol
ku men
mene mään</w>
ky nn
laj in</w>
ss ar
ku ssakin</w>
heiken tää</w>
hallin nassa</w>
3 A
än kin</w>
tilo jen</w>
kuukau si
aja sta</w>
is el
Kun ing
Me ksi
Li i
kää mme</w>
rahoitu kseen</w>
alha inen</w>
purj ehti
bis ne
tark iste
n et</w>
tytä r</w>
elintarvike turvallisuus
a ste
tuotta ja
ol ettaa</w>
oid ut</w>
T S
ty vät</w>
Maks an</w>
Ja ke</w>
7 .</w>
selv ity
ö ä</w>
reil ua</w>
vi itt
ERÄ NUMERO</w>
vali ttu</w>
ki vaa</w>
st ellaan</w>
sul je
ajatu ksia</w>
hu s</w>
an nat</w>
P in
m isto
Ta var
12. 2006</w>
pin ä
vai lla</w>
vaih telu
va kiin
tava llaan</w>
el ia</w>
anta man</w>
Ukra inan</w>
TI ET
murhaa ja</w>
nne kin</w>
koh tiin</w>
jatko ssakin</w>
Ka h
tulehd us</w>
muu ttua</w>
vaiku ttanut</w>
tees ken
hin taa</w>
o tetta
Usko tko</w>
Lo istavaa</w>
keske yttää</w>
D on
tek stin</w>
ka ll
nime llis
Maail man
sta s</w>
ilmo itukset</w>
16 0</w>
kuu lleet</w>
ko mentaja</w>
W ill</w>
tava lio
väl i</w>
kappal een</w>
Liitt eessä</w>
si iv
keino in</w>
K AN
jaks a</w>
la ita</w>
käynn istää</w>
sallitt ua</w>
o tamme</w>
koske maan</w>
fi ksu</w>
Pel ast
osallistu maan</w>
perhe en
etu us
l u</w>
suunnite llut</w>
sisäll ytettävä</w>
ust il
kohta inen</w>
KÄYTTÖ PÄIVÄMÄÄRÄ</w>
Kun kin</w>
kansalais yhteiskunnan</w>
s s</w>
liitty misen</w>
tel e</w>
suos ituksen</w>
ro ol
oll isia</w>
te ori
Use immat</w>
Dani el</w>
C u
sää ntö</w>
is it
nimi ttä
rau hanoma
ito t</w>
ki vi
kansall isessa</w>
demok raa
hall ita</w>
määrä ys</w>
Mar ia</w>
jälj enn
palvelu ihin</w>
kaupun kiin</w>
Tho mas</w>
in vest
e mo
ti ksi</w>
edellyty s</w>
al d</w>
ver o</w>
fy si
saa vutu
nte en</w>
kka si</w>
onn ittel
vast e</w>
ttämä ttä</w>
sopi va</w>
n ett
B us
pa hi
Ky l
val mista</w>
t rans
obje ktiiv
toimin tansa</w>
kansala inen</w>
anta malla</w>
os ista</w>
kuu ma</w>
t kään</w>
lausun toa</w>
pal ka
R O</w>
ise mpia</w>
enimmäis määrä</w>
itt ö
ann ettua</w>
ehdo ttoman</w>
toimi jat</w>
istu o
Bo bby</w>
tä tte</w>
kau tta
tul k
toimi valtaan</w>
puol ustaa</w>
kulu nut</w>
Keski -</w>
menettely istä</w>
H on
ravinno ksi</w>
lis en
eko log
200 7-
so h
kilo a</w>
arviointi in</w>
si ki
l istan</w>
aloitta misesta</w>
tarkoitu sta</w>
Ke tä</w>
ryhd yttävä</w>
Ta isin</w>
tor sta
la itonta</w>
sää li
keskuspan kkien</w>
Egy p
on ta
X X
tuotta jille</w>
tuo tteista</w>
r iton
Mu istu
B ud
syö pä
t raa
san tti</w>
Kes ke
meta lli
tu in</w>
talou teen</w>
kom mun
osa puolille</w>
Hy västi</w>
P öy
poika si</w>
voi ttoa</w>
P V
te ihin</w>
toimi elin
li ha</w>
ka ar
O G
tuhan sia</w>
Poi kke
Ä lä
yhteis kunta</w>
seura ttava</w>
lyh yt</w>
Kansainväl isen</w>
pä le
so taa</w>
Vih re
tar jon
resep to
Se itse
Ste ve</w>
toivo o</w>
minuu tissa</w>
use amma
po ja</w>
on issa</w>
n ol
laati maan</w>
mu re
Poli itt
P la
sa ste</w>
väl it
neuvo a</w>
in taan</w>
ra si
puol elta</w>
jakau tu
C onn
Asi anoma
kolleg a</w>
yhden verta
päh kin
jan ne</w>
arvo paperi
aa si</w>
va kaa
komissi olla</w>
voima ssaolo
käytäntö jen</w>
E A
sisäl töä</w>
markkinoi hin</w>
päästö t</w>
ajan jakson</w>
am b
ro op
väl ttämiseksi</w>
ku a</w>
kans antasa
V ittu</w>
komite assa</w>
A l</w>
väh itellen</w>
moi tte
Päästä kää</w>
II a</w>
toiminta suunnitelman</w>
muutta maan</w>
liik u</w>
- Anteeksi</w>
tt yyn</w>
vuo sisa
i -
c en
ante eksi
C re
pien tä</w>
no uss
s päin</w>
lu kenut</w>
k iss
d ing
tt ini</w>
an en</w>
b o</w>
Re g
joka ista</w>
mieh istö
j in</w>
MY Ö
il taa</w>
tiu ke
ohe lla</w>
sovelletta van</w>
my ksen</w>
vä istä
tytä ryhti
Lop pu
val u
lisää mään</w>
N G
li itä
fin anssi
anno s
ttel emme</w>
av u
L a</w>
re ista</w>
va uva</w>
o m
saman laisia</w>
Kä vel
H or
milla inen</w>
itett uja</w>
va kaa</w>
pa eta</w>
ehd i</w>
Pa kkau
A nne
koko usta</w>
tti men</w>
Toimin ta
ruumi s</w>
hauta ja
vaimo si</w>
suo da
kaap issa</w>
ar ka
huomi on</w>
hel tä</w>
sää dä
vara ttu</w>
le u
matto mana</w>
kansall iseen</w>
toivo mme</w>
mmä sty
KI R
Ku mo
kan teli
aloi tti</w>
näy tät</w>
toisi amme</w>
komissi olta</w>
ääne stin</w>
luottamu sta</w>
na pa
kää nnö
konkreett isia</w>
Cla ire</w>
pi el
asianmuka isen</w>
yö llä</w>
poi kaa</w>
perustel u
nä it</w>
vastaa vaa</w>
ikä s</w>
vasta nnut</w>
tarkastel ua</w>
osapuol ia</w>
HIV -</w>
ristirii ta
ku ta</w>
kolmann essa</w>
la kien</w>
ku kin</w>
T E</w>
torjun ta</w>
i mia</w>
va ikka
ulko -</w>
tyypi t</w>
oire yhty
kimp puun</w>
perustu vaa</w>
par antu
kanna tan</w>
vir heitä</w>
ku olleet</w>
www .
y issä</w>
SEURAA VAT</w>
vakuu tus</w>
P H
Mit kä</w>
re y</w>
milla ista</w>
ha ja
an d
pare mpia</w>
keho tetaan</w>
OH J
lisää miseksi</w>
bud je
osa puoli</w>
jäte tään</w>
ist äni</w>
glob alis
kymmen en
K anta
määräy ksen</w>
miel een</w>
kokou kseen</w>
hyväksy ntä</w>
eni mmä
mi ini
kumo amisesta</w>
au tojen</w>
o -</w>
mu istan</w>
yhteen toimi
pyr kiä</w>
E -</w>
IS SA</w>
odo tamme</w>
vahviste tun</w>
ki ve
me kaan
UO TO</w>
valvon taan</w>
P ikku
A g
myrs ky
mu t</w>
vaiku tti</w>
mm ä</w>
asia kirjoihin</w>
kala stus</w>
Suu ri</w>
hoita ja</w>
laa tinut</w>
asete tut</w>
hakemu kset</w>
- E
tappa maan</w>
ma nte
edust ust
vaar antaa</w>
kan tansa</w>
jä stä</w>
au diovisu
Par empi</w>
pal jo
ä kseen</w>
avar uus
Agen da</w>
pyy dä</w>
pro jek
hyväksy mis
vii v
ttö miä</w>
ks ikin</w>
P rin
tää kseni</w>
pan tava</w>
ka tu
OL TAVA</w>
9 2-
päte vyy
inno vo
soi ttanut</w>
kuulu i</w>
Pit kä
Ilma-alu ksen</w>
viest innän</w>
tehty yn</w>
pu u</w>
täs men
Työ sken
kumppan uuden</w>
aika isesti</w>
W e
saa da
kapasite etti</w>
Y li</w>
S or
LÄÄK EM
puhu vat</w>
k äär
run saa
elä mänsä</w>
farmakokin eti
itt oon</w>
op ettaa</w>
oi l
Suosi onosoituksia</w>
pysy vät</w>
Pa ko
perhe eni</w>
itu kseen</w>
: een</w>
olenna inen</w>
ol ikin</w>
kiel tä</w>
vasta isen</w>
mur han</w>
muodo stuu</w>
merkittä vän</w>
tiu kasti</w>
liikke elle</w>
jä tteen</w>
V edä</w>
vä keä</w>
paper it</w>
pan i</w>
llisyy den</w>
oll e
ito ja</w>
ansa itsee</w>
Wal ter</w>
ky tke
Myynti luvan</w>
luovu ttaa</w>
tark istettava</w>
ele men
Onn istu
voi mat</w>
eri llis
tuli tte</w>
anno in</w>
par haa
a isten</w>
teke mis
tule maan</w>
han a</w>
ee ko</w>
IS TÄ</w>
luonte eltaan</w>
pu re
I :n</w>
20 .</w>
V EL
mole mpia</w>
yhtä kkiä</w>
ku t
s an</w>
tärkei mmät</w>
i va
kado nnut</w>
joutu i</w>
Tu ki
se is
V annon</w>
kann asta</w>
olosuhte iden</w>
hallinnoll isten</w>
tutki i</w>
pan tti
laino jen</w>
ta kseen</w>
säilyttä minen</w>
pyy nti
pu lassa</w>
sää nn
Af r
täy ty
Asi an
10 6</w>
sano isin</w>
kansall isille</w>
hedelmä -</w>
myöhä sty
ehdo tti</w>
j yy
h y</w>
ä y
an -
torjun taa</w>
ala ito
tuke miseksi</w>
Ti es
p ed
lähe te
llä mme</w>
kaik in</w>
M ed
ä kseni</w>
ola inen</w>
tehtävä nsä</w>
is ar
voi mia</w>
vi kaa</w>
t kin
hall itusten
Liettu an</w>
b us
ved en
kiel i
ke ksin
fa vir
Na isten</w>
siir tyä</w>
saan eilla</w>
r yn</w>
o men
Löy simme</w>
yhte isessä</w>
tul tava</w>
murha sta</w>
itä kin</w>
C al
Tul o
Jo hd
uudistu ksia</w>
suor itetta
kiinti ön</w>
ulkopuol isten</w>
muo tojen</w>
juo tavaa</w>
Var sin
juo kse
jo tkin</w>
perust ettiin</w>
keskisuu rten</w>
Kuu b
työ voima
tuotta jan</w>
11. 2007</w>
pelast us
te issa</w>
kemi an</w>
oikeus -</w>
M uo
lie ven
kokonais valta
kuu sta</w>
seer umin</w>
ilma ise
favir ent
tehtä viin</w>
Ku nni
Kai ke
lah ja
rehe llinen</w>
su n
haaste isiin</w>
katso ttava</w>
den ne
talous alueesta</w>
peri llä</w>
Sai ra
SISÄ LL
maataloustuo tteita</w>
py sy</w>
tto jen</w>
Teh kää</w>
koheesi opoliti
do kumen
tun a</w>
T ale
vyöhy kke
ste in</w>
sa m
hyö kä
A h
Presiden tti</w>
Min u
Käs ke</w>
sovi ttelu
tuke minen</w>
do ne
organisaati oiden</w>
aiko ihin</w>
var moja</w>
oso itetaan</w>
12 .</w>
kokoon pano
typer ä</w>
vähen netään</w>
vi d
aiheu tti</w>
Ai emmin</w>
vel at</w>
gu a
tärke immistä</w>
mainitt uja</w>
haki jan</w>
salli taan</w>
poista minen</w>
eriko istu
seuraa valla</w>
laske e</w>
E mil
lah jo
iko ista</w>
La ito
Ympärist ö
esitä yte
kokemu s</w>
sovi ttu</w>
C B-
uu ni
toteutta misen</w>
Na inen</w>
no usi</w>
virhe ell
la mpa
keh itt
asia in</w>
3 6
Kuu lu
ss el</w>
käyttööno ton</w>
ne essa</w>
lähte mään</w>
asiakirja ssa</w>
Vai hto
LÄÄKEM UOTO</w>
edusta jia</w>
valmi it</w>
Si i
In tro
konferen ssi</w>
yksi puol
y lo
tietty ä</w>
s ka</w>
o kei</w>
alkuper ää</w>
normaal i</w>
vi edään</w>
Julkis asiamies</w>
Kor ke
kä nny
n ur
utu kaa</w>
tehtä vistä</w>
luku isia</w>
pyrki vät</w>
pk- yritysten</w>
ne kään</w>
asiantunti joiden</w>
Ale x
raja tyli
ener gia</w>
Ruo tsissa</w>
vaara llisten</w>
toimen pit
myönn ettiin</w>
koto isin</w>
korva us</w>
astei ttain</w>
0 9.
ki ista
ään tä</w>
noudatta maan</w>
ann en</w>
utu sta</w>
tausta lla</w>
Kyse inen</w>
Tapa htu
Ku va
Jo hta
koke illa</w>
as etta</w>
tt ääkö</w>
s yt</w>
rahoi tta
otta malla</w>
arvo isat</w>
lupa an</w>
liitty i</w>
tulo kseen</w>
ttu ina</w>
terve tull
ri ka
mur tu
järjestel miin</w>
ki llä</w>
prosen tt
o k
yh mien</w>
ve teen</w>
yksityiskohta isesti</w>
P en
alue ista</w>
ole ell
direktii vi
itse mme</w>
Jess us</w>
- aine
Vi et
mä töntä</w>
kala a</w>
esitetty jä</w>
kon sul
is u</w>
al -
mu ksia</w>
z a
anta misesta</w>
EI P:n</w>
injektiopu llo</w>
ulottu ville</w>
isuu n</w>
val oa</w>
0 4
c t</w>
investoin nit</w>
sy nny
ar mo
pääsihte er
ihmis istä</w>
e u</w>
ann in</w>
perustel ut</w>
luete llu
yhdenmuka iste
toimi vallan</w>
ydin voima
velvoi tteita</w>
jäsenvalti olle</w>
ver nö
sää stä
Y TE
sy l
pan o</w>
moottor in</w>
va stu
hal ve
saatta isi</w>
ITTA MIS
oll isuu
ministe rineuvo
mu ist
Inter na
sulj ettu</w>
Ikä vä</w>
kaupun kien</w>
L -</w>
Mar k</w>
MIS TO</w>
H UO
sosiaal isia</w>
in eiden</w>
au tan</w>
marras kuussa</w>
U R
Ka ver
kirjo ja</w>
vara sta
suunnittel u
Alo itetaan</w>
selvi ä
uh rien</w>
riippu en</w>
peruss äännön</w>
MUU T</w>
kilpail us
Taka isin</w>
mu st
1 12</w>
c i</w>
EN N
Ajattel e</w>
Pel kään</w>
korva usta</w>
äänesty stä</w>
er än</w>
lähd et</w>
in ien</w>
198 8</w>
pysty vät</w>
tan an</w>
Sopi i</w>
tte itä</w>
op positi
kulutta jat</w>
Sloven ian</w>
ast etta</w>
w en</w>
tie detään</w>
eli min
analyy sin</w>
luo mista</w>
Sopi iko</w>
anna mme</w>
puhelime ssa</w>
kuul ustel
tarjo usten</w>
stoimin nan</w>
ediste ttävä</w>
tutki maan</w>
f u
pu itt
Kene lle</w>
Bos nia</w>
17 .</w>
pain aja
ihmis oike
nime llä</w>
13 .</w>
raha -
S .
kohdistu vat</w>
en nä
Huo m</w>
G al
lan tila
jäsenvalti oon</w>
reakti oita</w>
G ene
mon ista</w>
ttu aan</w>
tappa ja</w>
kan aan</w>
turva llista</w>
sähkö n
ra ta</w>
puu tu
keskustel emme</w>
odo tan</w>
in en
teh tyä</w>
paino ttaa</w>
Tu ki</w>
syyll isty
merki tty</w>
ett ien</w>
asianoma inen</w>
M IN
He mmetti</w>
Et hän</w>
pake tin</w>
pa t
lo ista
Ihan ko</w>
ää si</w>
vaara llisia</w>
It se
järke vää</w>
U ru
Ni zz
G la
kehittä miseksi</w>
alu kset</w>
Oike usa
klo ori
Ku ts
li itettävä</w>
toim iston</w>
polku myynn
säädö ksiä</w>
kunn a
anne tulla</w>
P E</w>
Koo di</w>
E ro
201 5</w>
käyte ttyjen</w>
komissi ossa</w>
isi en</w>
: hen</w>
tu llaan</w>
au ttavat</w>
iden tite
hen ki</w>
eläi mistä</w>
13 8</w>
reakti ot</w>
1 30</w>
Luxembur gissa</w>
vero tuksen</w>
Muu ta</w>
s ulo
ehdotu ksensa</w>
väliaika isen</w>
hallinto komitean</w>
Ka s</w>
ruu s
10 1</w>
tto mat</w>
koo dit</w>
Vuo si
s ko
sar ja
10 8</w>
maksu ista</w>
huu meiden</w>
elintarvike ketjua</w>
vastaa via</w>
hen gi
tyh jä</w>
pä rjä
mahdoll isten</w>
tt eihin</w>
mi aan</w>
Tu h
v inä</w>
Perusta mis
p ittö
iss äni</w>
C o</w>
sta so
kse ssaan</w>
C PA</w>
torj ua</w>
talo on</w>
A ja</w>
D EN</w>
ka ttava</w>
väär ä</w>
sovelletta essa</w>
vaa tteita</w>
il man
di ini</w>
a tte</w>
p iste</w>
Jäl je
laski moon</w>
kanso jen</w>
C han
va kautta</w>
8 .</w>
la s</w>
yl ö
kul kee</w>
aloi tteesta</w>
ve ss
paika llisen</w>
selv itys</w>
ing in</w>
maalis kuussa</w>
rahoitu ksesta</w>
er ossa</w>
ri e</w>
p pä
jatku va</w>
terä stä</w>
oll eg
laadi taan</w>
iss o
Kai killa</w>
välttämättö miä</w>
suo stu</w>
B ran
re u
kau nista</w>
use immat</w>
J .</w>
R T</w>
ju mala</w>
hoita maan</w>
erila ista</w>
mu istettava</w>
te stin</w>
puu tar
PAKKA UKS
lu melää
kehitys maiden</w>
Ma d
samanaika inen</w>
llisuu desta</w>
maks a</w>
hyvä kseen</w>
palvel un
pitoisuu det</w>
Z o
use at</w>
säännö stö
ne eksi</w>
Alku perä
käytä vä</w>
yli jää
ver isuo
myynti luvan</w>
tiivi isti</w>
ik ö
haast e</w>
puol ta</w>
tiedonanno ssa</w>
poikke uksia</w>
S ur
työnteki jöille</w>
S uhte
tä kää</w>
oimenpite itä</w>
mättö mät</w>
viime isi
min nekään</w>
val ituksen</w>
säädö sten</w>
järjestely jen</w>
M os
todennäkö istä</w>
est en</w>
ETTEL O</w>
Tai dat</w>
politi ikka
Ole mmeko</w>
eri aa
t kää</w>
pa ken
n oll
automaatt isesti</w>
er ä</w>
rak kautta</w>
nä emme</w>
konferen ssissa</w>
j i</w>
esittä neet</w>
pako ttaa</w>
li u
omis taa</w>
EFTA -
neuvo nanta
men in</w>
00 1</w>
Todell ako</w>
jul istu
ta innut</w>
ke ksi</w>
pit uus</w>
satunn a
ke aa</w>
edistä vät</w>
Men in</w>
tietä vän</w>
käytä ntö</w>
Jac ks
tuo daan</w>
työ nsä</w>
kiel to</w>
Tied ot</w>
Jan e</w>
valuu tan</w>
saapu u</w>
koske a</w>
suos itus</w>
ro mani
jao sto</w>
ili a</w>
järjest etään</w>
julk isesti</w>
valti oille</w>
nimenoma isesti</w>
n kö</w>
isyy destä</w>
ko ihin</w>
perustee llisesti</w>
g -
Ja co
C ro
Ban k</w>
vapaa eh
o ttaneet</w>
valmista ja</w>
sie ppa
tiety issä</w>
maa si</w>
jat kossa</w>
vaar aa</w>
in enkin</w>
T R
1. 1</w>
löy sit</w>
ker in</w>
Juo kse</w>
työskentele e</w>
oll isesti</w>
vaatimu ksiin</w>
llä kin</w>
jatka maan</w>
poltto aineen</w>
päätty i</w>
po istettava</w>
talou ksien</w>
päätty mistä</w>
ite tyn</w>
- 1,
esittä mät</w>
tava raa</w>
päätel mien</w>
Ed die</w>
ta ani</w>
po ru
työ t</w>
ust o
edisty sa
Chi c
Ka te</w>
r ön
keski arvo</w>
aluee llinen</w>
tapo jen</w>
standar din</w>
nö yr
kärsi vät</w>
keh itettävä</w>
aiheu ttanut</w>
sa ta</w>
muo toja</w>
ec un</w>
d eihin</w>
ten a
ky lä
markkin oista</w>
rakenneraha sto
numer olla</w>
jä tteet</w>
tarpe ita</w>
toimi ttamaan</w>
ette ja</w>
Pu do
varmuu tta</w>
E KSI</w>
torjun ta-
laitt oman</w>
erä stä</w>
2 2
metsä stä
US A</w>
toimiel imen</w>
todell isuudessa</w>
tar inan</w>
poli ise
ol yy
it oimin
E G
yksinkerta ista
normaal ia</w>
lähten yt</w>
jä ksi</w>
10 5</w>
Taa s</w>
ttan een</w>
a ktii
an sula
alo itus
ettu ihin</w>
p on
k elä
jo na
oike aa</w>
Voi tteko</w>
turvallisuus neuvoston</w>
indikaa tto
terä s
ymmär rä
alu ksella</w>
si e</w>
kehity sa
bi oo
liitty vissä</w>
Pitä isi</w>
doll ar
da lla</w>
ro ma
Helve tin</w>
ra ta
euro järjestelmän</w>
Bar cel
pää lle
Las ke
ne e</w>
muo don</w>
A rva
Ties itkö</w>
te ste
re s</w>
le vä
ttor i</w>
parha an</w>
kansan terveyden</w>
14 .</w>
varo toimet</w>
esiin tynyt</w>
M S
olo issa</w>
yrity ksistä</w>
viera il
su nn
joi lta</w>
ne taan</w>
kasvihuone kaasu
vast ust
aktiiv inen</w>
os uudet</w>
her eillä</w>
kysymy ksessä</w>
f an
ed ist
Tul i</w>
paranta miseen</w>
osi in</w>
kuulu va</w>
vernö ö
po mo
taloudell iseen</w>
oi ksi</w>
muu tettiin</w>
tun ke
syy n</w>
s pe
pri or
matkusta jien</w>
tu ihin</w>
men ettänyt</w>
kielle tään</w>
tu kahd
vahviste ttiin</w>
ma ssa
n yr
siv u</w>
il taan</w>
O :n</w>
se mina
tapaa minen</w>
kohtel u</w>
h äällä</w>
alkuperä isen</w>
liitty en</w>
lääkä rin
kysy i</w>
istan issa</w>
E dell
maks oi</w>
T yh
tunn issa</w>
Ni issä</w>
16 .</w>
e versti</w>
aa ko</w>
vit ro</w>
aika taulu
tä nyt</w>
pää dy
pain e</w>
val he
ku takin</w>
t so
Il me
ratkaise miseksi</w>
hap on</w>
de l</w>
avoime sti</w>
si una
alo itetaan</w>
vuoro kauden</w>
sta kaan</w>
koti ma
ker ty
ik ki
Tä män
vahing on</w>
täydell istä</w>
se tä</w>
kuoll een</w>
Valvo nta
pi ä</w>
Joh n
äännö t</w>
ku mpi</w>
maail maan</w>
die sel
1 1-
puu tteita</w>
oikeu desta</w>
no ssa</w>
kilpail uun</w>
tie sin</w>
tervey s</w>
ili t</w>
Tää ltä</w>
S itä
es itettiin</w>
vir uksen</w>
saman a</w>
keskuspan kit</w>
er on</w>
VA A</w>
kor ko</w>
anno ksella</w>
- Mistä</w>
vaatimu ksen</w>
ver oa</w>
histori an</w>
elo kuva
V ero
9 ,
tutkimusajan jaksolla</w>
mon in</w>
ma r</w>
av un
aika isin</w>
Kulu tta
laajentu minen</w>
yty ä</w>
luo tava</w>
q ui
l änsi
Uru gua
O pe
toime sta</w>
Varo vasti</w>
vira llisten</w>
sano ma
k ni
isuu ksien</w>
säänte lyn</w>
ä lkää</w>
erinoma isesta</w>
määrä inen</w>
suos itukset</w>
erityis piir
tasa vallalle</w>
S V</w>
lu e</w>
Mal tan</w>
pol in</w>
ka nne</w>
pöytä kirjassa</w>
V IT
Alanko maissa</w>
au ttoi</w>
tel i</w>
no lla</w>
Tar kista</w>
seuraa viin</w>
po mmi
tärke impi
f in</w>
Yor kissa</w>
odo tettavissa</w>
tasa lle</w>
toiminta ohjelman</w>
syy te
turvallisuus politiikan</w>
mo ista</w>
OL E
A mm
pu llo
kä t</w>
erila isten</w>
2. 1</w>
co m</w>
Va u</w>
hava in
ala sta</w>
neuvo ja</w>
kaupun gista</w>
Roma nia</w>
Har vin
tta ako</w>
TA PA</w>
K UU
p ö</w>
epä toivo
ede tä</w>
joutu nut</w>
sisäll yte
ku ol
va l</w>
bl etti</w>
suunnitel maa</w>
LU ETTELO</w>
Arthu r</w>
pe a</w>
maks ettu</w>
Puol a</w>
Lat vian</w>
varainhoito vuoden</w>
Ri ko
mioistu imen</w>
a misen</w>
vil pittö
juo da</w>
Nope asti</w>
todell isia</w>
o man
asianoma iset</w>
Sil ti</w>
nimi kkeen</w>
tapahtu mista</w>
my y</w>
ve sien</w>
tt ei</w>
la keja</w>
suuntavii voja</w>
ma to
las ki</w>
heng ity
esi ttele
anta massaan</w>
val o</w>
ve dessä</w>
hui ma
le mme</w>
ki usa
i lleen</w>
S EL
2 1.</w>
lämpö tila</w>
c m</w>
ä kkiä</w>
sto ssa</w>
pide mmälle</w>
S U
siir toa</w>
kehittä mään</w>
ti etty</w>
oikeu dessa</w>
myöntä minen</w>
kalen teri
uu della</w>
Kyse isen</w>
markkina osuus</w>
u ks
hien o
vähentä minen</w>
ras kaa
anno stus</w>
10 .</w>
myönte isiä</w>
f i</w>
Ta pa</w>
oike alla</w>
MI O
Uno hdin</w>
hö yr
huippu kokouksen</w>
UL KO
runsaa sti</w>
verta il
kka ri</w>
W or
tin eet</w>
erityise dusta
Sel vi
yttä kää</w>
aviir in</w>
P yö
sy lin
no sti</w>
kerta -</w>
er itty
tarkoitetu issa</w>
hien osti</w>
Päätö ksen</w>
M ul
et si</w>
J UL
piste en</w>
Yhte istyö
medi a
EI P</w>
todistus voima
pid etty</w>
n ta</w>
p annut</w>
kerra ssa</w>
kalta isten</w>
J er
viitta us</w>
ve s
kerra llaan</w>
st ulo
mpu n</w>
insu liini</w>
ista nne</w>
tar tun
kkun i</w>
houku ttele
kan si
järjesty y</w>
hyväksy ttyjen</w>
usea mpi</w>
ä llä</w>
on is
osa ke
mmä s</w>
rauhall isesti</w>
fluo ri
aihe ista</w>
Y ksi
Tul ehan</w>
onnettomuu s</w>
järjestel yn</w>
N C
b än
T U</w>
pään sär
ken eet</w>
ol ai
Tied on
ved et</w>
tos issani</w>
tä vää</w>
brutto kansan
teke män</w>
mai l</w>
is aa</w>
z an</w>
näky ville</w>
johta jat</w>
udu in</w>
lapsi lla</w>
haaste ita</w>
Pi din</w>
suor itettu</w>
yhteis istä</w>
pu nainen</w>
paika llinen</w>
ongel maan</w>
Seura ava
kon soli
asia lle</w>
Pyy sin</w>
resur sseja</w>
Eurooppaneuvo ston</w>
K ari
In done
myöntä misen</w>
hamma s
M O
sis ään
kymmenen tenä</w>
ne e
puole stasi</w>
harjoitta jien</w>
op al
A IS
4. 2004</w>
vi ettää</w>
rik ki</w>
os issa</w>
jo nnekin</w>
ihy dro
Mu u</w>
su ola
est ämme</w>
ase masta</w>
ar vel
S en
selv ityksen</w>
tarka lleen</w>
E u</w>
18 .</w>
muu n
m ed
kasv uun</w>
J erry</w>
M as
vah inko</w>
il men
luonno ksen</w>
toi mis
E mmekö</w>
aluee llista</w>
tar joi
to isia</w>
s ha
vastuu vapauden</w>
tunn el
paikko jen</w>
muka asi</w>
lau la
ko illa</w>
Tarvi taan</w>
säil ytettävä</w>
is ku</w>
E lo
P oiketen</w>
sella iseen</w>
nau tti
di alyy
tasa lla</w>
amma tin
Ra chel</w>
la si</w>
ääli ö</w>
8 5
oimenpite et</w>
ki taan</w>
hyvä nsä</w>
Phar ma</w>
IT TEL
Viet na
säädö ksen</w>
9 .</w>
suure mpaa</w>
toimin nan
t kaan</w>
edistä miseen</w>
7 0
uh reja</w>
l el
ann u
So vi
V .</w>
musiik kia</w>
O EC
toim itetta
lausunn ot</w>
nä y</w>
ttel ujen</w>
sääntö ä</w>
elä vät</w>
ty kkää</w>
tapa tur
F AR
lähe tetään</w>
myönte istä</w>
moottor i</w>
kansall isiin</w>
osallistu misen</w>
käy vät</w>
järjest e
in ta
aa tto
O saan</w>
vara puheenjohtaja</w>
ma ti
käyte tyt</w>
K AS
per ille</w>
laa sta
ti ota</w>
selv itä</w>
poli isit</w>
pel otta
y h</w>
pa llo</w>
ke sti</w>
Li ikku
on a
kolle ga
sa ine
synty i</w>
sano ttavaa</w>
virka miesten</w>
in tumis
väliaika isesti</w>
varo itus
min kään</w>
kann at</w>
Pi la
kiell on</w>
A ra
tahd on</w>
ammati llisen</w>
hyö kkää
Joll ei</w>
uudistu s</w>
luottamu s
S iltä</w>
Chu ck</w>
S op
hyväksy misen</w>
H ir
p kyr
f aatti</w>
me sta</w>
etusija lle</w>
umer o
B ec
ö tä</w>
z e
haki ja
alue -</w>
Euroopa sta</w>
c es</w>
kohdistu u</w>
mä r
Ki oton</w>
C i
ttömä ksi</w>
jäsen istä</w>
te att
teke mässä</w>
täyden tää</w>
ma iss
d ust
to ver
Te ho
muu nta
ikko ihin</w>
yksilö i
stä nne</w>
op ää
Alb ani
tarjo taan</w>
EH TY
Bryssel in</w>
tuleva isuudesta</w>
istu i</w>
hallinn an</w>
tar tunn
D :n</w>
V U
ma x</w>
iken ne</w>
f t</w>
R ä
onne kas</w>
Ni me
Mun u
Halua isitko</w>
u ne
osasto ssa</w>
En ergi
kirjoi tti</w>
Agen tti</w>
kyse isellä</w>
anno ksesta</w>
En si</w>
Van ha</w>
kse päin</w>
tarvi ttava</w>
sisäll ytetään</w>
M yr
palja staa</w>
itu jen</w>
J uh
kuul ee</w>
jäsen enä</w>
19 .</w>
lisää mällä</w>
vir ta</w>
Arvo stan</w>
m oll
Suo kaa</w>
A G
etta vat</w>
15 -
tarko in</w>
h err
parha ita</w>
to u
kel paa</w>
Ki ina</w>
th ro
loka kuussa</w>
Ri ippu
vel an</w>
val ot</w>
to isten</w>
Mole mmat</w>
ihoi don</w>
Eng lannin</w>
vä ite</w>
huol to</w>
te llä</w>
hy gi
esi llä</w>
yhteis päätös
N I
osa sta</w>
lääke tieteell
kirj e</w>
- He</w>
ja ko</w>
est o
Nä ihin</w>
neljä s</w>
b le
c al</w>
ma nne</w>
etta vissa</w>
hallin ta</w>
Pidä mme</w>
syrjin tää</w>
Maa han</w>
Jäsen valtio</w>
toimin toja</w>
KOSKE VAT</w>
vai monsa</w>
oi ko</w>
ra l</w>
käs ite</w>
ajattel e</w>
kahden tena
paranta mista</w>
kau e
PP E-
ääntö jä</w>
7 00</w>
Kymmen en</w>
tila lle</w>
vien ti</w>
tehtä väksi</w>
ku rin
kol ta</w>
Sella inen</w>
tekni iko
pi don</w>
Vira fer
täytäntöönpano asetus</w>
ile maan</w>
hous ut</w>
tuoll oin</w>
Yhd essä</w>
keskustel uja</w>
hull uksi</w>
TA LO
väest östä</w>
k istä</w>
ó n</w>
päiv inä</w>
an ia</w>
3 18</w>
koi ra
kats onut</w>
kama laa</w>
c on</w>
ymmärtä nyt</w>
sall ittu</w>
pääss eet</w>
pär jää</w>
st yy
nuo rille</w>
kimp puu
hoi detaan</w>
pide tyssä</w>
polku myynti
ilmaston muutoksen</w>
pysy västi</w>
ilmo itus
E versti</w>
kustann us
d yttävä</w>
van kil
kiell etty</w>
luonnon vara
llis elta</w>
lei ka
use issa</w>
kalvopäällyste inen</w>
hallin taan</w>
10 2</w>
ll un</w>
k rea
ne ulo
D ra
suure mpia</w>
it sel
Uu den</w>
toimitta ja</w>
oi ka
ha ar
Vir on</w>
Odo tamme</w>
sähkö isen</w>
T TÄ
M aan</w>
hi il
pä tee</w>
ll isilla</w>
Kyse iset</w>
T yttä
ETA- täydenny
yhtenä isen</w>
velvoi tteet</w>
par annetaan</w>
poliitt iseen</w>
kin a</w>
en e</w>
c in
rö i
Tu li
tervey delle</w>
ma ksi
ensimmä isestä</w>
tieto on</w>
määrite llyt</w>
miett inyt</w>
ma nn
kier to
D e</w>
Et simme</w>
siir tola
riippu maton</w>
kan taan</w>
V ed
oikeudell isesti</w>
m r</w>
Du b
vuo siksi</w>
st oli
fi -</w>
yksity isten</w>
par annettava</w>
l .</w>
järjestel y</w>
tapan a</w>
ministeri ö</w>
kunni a
täy te
kiinte istä</w>
mmä llä</w>
in aan</w>
TU S</w>
her ää</w>
w e
vo itiin</w>
men o
ttomuu s</w>
Tilin tarkastustuomioistu
oll isuus</w>
ju o</w>
uh ri</w>
ol a</w>
Osa llistu
oikeudell isia</w>
o ud
tyy p
k kyy
itse lleni</w>
Sopimu s</w>
väär enn
D an</w>
20 1</w>
kyy tiin</w>
lii ku
V IL
usta pa
Mie hen
f ta
puhdistu ma</w>
puhu neet</w>
luonte en</w>
y dy
re pu
ra mi
poistu a</w>
poi kki</w>
kro on
kann ano
198 5</w>
tämän hetk
tuon ut</w>
ilmais u</w>
poly me
D un
t -</w>
E ri</w>
teura sta
pysy vä</w>
nn ittel
meren taka
löy dän</w>
tait ei
lan g
S ain
prof essori</w>
H C
varmis taakseen</w>
kunni oittaa</w>
eur o</w>
A asian</w>
kku ja</w>
L im
K K
M ir
saa tettava</w>
ruo t
numer on</w>
kau deksi</w>
Yhd en</w>
u ts
se inä
pyst yt</w>
hyväks ikäy
maini ttava</w>
miehi lle</w>
elin ikä
A a
klori di</w>
kehitys yhteistyö
tärkeä mpää</w>
ho mman</w>
europa.e u</w>
lap seni</w>
munua is
mahdoll isista</w>
tyttö jä</w>
ker uu
ilma ilu
Kuu si</w>
ud an</w>
Ma dri
ten eg
plas man</w>
an o</w>
työ ni</w>
keskity tään</w>
ha ssa</w>
VA STA
Afgan istanin</w>
ved ota</w>
liitä nnä
liikkeeseen laski
tai pu
pika isesti</w>
väh iten</w>
sopimu ksissa</w>
ajattel et</w>
kolman siin</w>
Euro pe</w>
toiminta ansa</w>
odo ttamaan</w>
valtuu ksia</w>
tarkastel u</w>
olenna isen</w>
Ma h
pää t</w>
täydell isen</w>
näl kä
pä s</w>
lisää mistä</w>
ku ole</w>
ehkäis y
µ g</w>
lu k
yl häällä</w>
pyr stö
yleissopimu s</w>
ti ka
alkuperä is
tyttö jen</w>
tule vaa</w>
reakti o</w>
or in</w>
E l</w>
hi i
kahdentena kymmenentenä</w>
yksinkerta inen</w>
maks usitoumu
d g
C hil
4 4
sy stee
paika lliset</w>
hä mmästy
aiko vat</w>
perustu ttava</w>
re itä</w>
j est
st yö
täytäntöönpano ssa</w>
i llaan</w>
häpe ä
h ra</w>
mai don</w>
tunn us
vuotia ana</w>
oike alle</w>
kulu tuksen</w>
taa mme</w>
sella isiin</w>
ko p
esi merkkejä</w>
Ku nnes</w>
A ur
lopetta maan</w>
dy nami
sol uu
avai met</w>
aluee llisia</w>
kuor m
hallinnoll iset</w>
suhta utuu</w>
ttä mistä</w>
yhtey det</w>
ku llekin</w>
aa mme</w>
Menettel y</w>
vuo delle</w>
Ke vin</w>
ratkaise va</w>
luo pua</w>
L Ä
ANTOREIT TI</w>
tehokkuu s</w>
e tun</w>
re lla</w>
pää nsä</w>
mu kse
alf a</w>
lasken ta
jälj et</w>
FI- C</w>
Au to</w>
tark ka</w>
ke mme</w>
vapa aseen</w>
kaike ssa</w>
Vo isitteko</w>
prosen tista</w>
sosa ssa</w>
pu ll
ke ksiä</w>
Ni illä</w>
käs itys</w>
käytäntö jä</w>
ren to
elektro n
vuo tis
suojel usta</w>
kysymy ksestä</w>
OL OG
is an</w>
tto ja</w>
kil pi
ki vi</w>
mättö miä</w>
etsi vät</w>
lääkä rille</w>
T ri</w>
ky p
tule va</w>
Päätö s
il y
Vai moni</w>
u mp
sy vä
vo ite</w>
viisu mi
Is o</w>
ölj yä</w>
r .</w>
pää omaa</w>
ke ttä</w>
s k
W oo
E tu
CN-koo diin</w>
kau ko
W y
Lo s</w>
m -
kysymy kse
mp ani</w>
2. 2</w>
po ja
Sis ään</w>
Kroati an</w>
tark kuu
ol kaa</w>
mie tin</w>
So ve
E I</w>
Bri an</w>
8 ,
kone ita</w>
hel iko
Pa ikka</w>
Eh kä
av ustu
tetu sti</w>
la je
tulo ksen</w>
ke tä</w>
heinä kuussa</w>
p uo
ell ään</w>
puoli intumis
hankin toja</w>
e tyyli
kau as</w>
her kkä</w>
sosiaal iset</w>
pel asti</w>
25 .</w>
suku puolten</w>
Sa mmu
unohta nut</w>
Mon teneg
ve mmin</w>
piir issä</w>
organisaati on</w>
v ene
Täy dellinen</w>
ite llut</w>
14 0</w>
ruis ku</w>
- Entä</w>
tehtä vi
myr kky
Tiedä tte</w>
palja sta
nä ki
tteli mme</w>
p innan</w>
ANTO TAPA</w>
tel un</w>
kka ro
pi kar
nope us</w>
Kä yte
ET S
valko isen</w>
vaihe eseen</w>
A TI
su va
Interne t-
poikke uksen</w>
est eet</w>
o innin</w>
ann ettuun</w>
Su u</w>
92- 7
hark itse
Sul je</w>
poista mista</w>
tuh la
julk iset</w>
ne eni</w>
alha alla</w>
raka stunut</w>
heliko p
tunn u</w>
puoli lla</w>
c al
te ssaan</w>
pöy dän</w>
ke vä
Chic ag
sel ost
V ITTA
oll isen</w>
Jo ulu
a kuu
tuleva isuuteen</w>
tut ki</w>
näke vät</w>
iti e
im in</w>
gh t</w>
täntö ön
sisä istä</w>
Viime ksi</w>
pol ttaa</w>
lo r
vuoropuhel u</w>
lou kkaa
et sin</w>
del e
P R
standar do
TOIM ITTAMIS
Luul tavasti</w>
tarvitta via</w>
rin ta</w>
le s
kä vellä</w>
Urugua yn</w>
Tie tääkö</w>
Her ää</w>
aa ksi</w>
IS O</w>
tuoll aista</w>
se pti
rei hin</w>
kutsu i</w>
So itin</w>
tek isin</w>
ite llä</w>
in iä</w>
g ener
valti oista</w>
tava ksi</w>
mon en</w>
merkintö jen</w>
helpo ttamiseksi</w>
G ol
poista miseksi</w>
jäsenvalti osta</w>
yk kö
ammu ttiin</w>
f ur
demokraatt inen</w>
ik kö</w>
2 2.</w>
2, 5</w>
Gu ine
tieto suoja
d etta</w>
vanhe mmat</w>
Ras kaus</w>
aa tin</w>
Oikeusa sia
tunn us</w>
Gi bb
E R</w>
- Emme</w>
käsite llyt</w>
pit oa</w>
maks avat</w>
p si
EL D
viime istä</w>
isto ja</w>
na ar
ki pu
Win thro
ty le
ain ee
r eille</w>
men ivät</w>
merk itse</w>
loppu jen</w>
e kö</w>
maa lla</w>
tee tä</w>
käyn tiin</w>
unioni lla</w>
Kul ta
al ene
onnistu i</w>
korke alaa
olo jen</w>
teho staa</w>
1 11</w>
pää osasto</w>
Fran ce</w>
hin nasta</w>
ku olin
sitoumu ksia</w>
tarka staa</w>
aati t</w>
laa j
joukko on</w>
sekoi ttaa</w>
pohjo is
tekst it</w>
var tio
pala an</w>
kä nn
henkilö tietojen</w>
san an
iso itu
vaihtele e</w>
it itte</w>
Tapa sin</w>
Taju atko</w>
vier essä</w>
taloudell isiin</w>
ES TA</w>
pien i
lääkä riin</w>
Ka hden</w>
Het ki</w>
tule mme</w>
Al oi
u ta</w>
kliin isesti</w>
e issa</w>
R uko
gli pti
lin e</w>
U K</w>
käsittele mään</w>
s itu
h tää</w>
2007- 2013</w>
neuvo tella</w>
TAR VITTA
teknologi aa</w>
laa jan</w>
aurin ko
Kysy n</w>
Injekti one
täytäntöön panemiseksi</w>
re hun</w>
ne elle</w>
hah mo
yhteiskun taan</w>
ratkaise maan</w>
ryhmi tty
opera tiiv
Ta hdo
täy tetään</w>
tarkoite tussa</w>
luottamu ksen</w>
kon staapeli</w>
is itkö</w>
I B
työmarkkina osapuolten</w>
sijaitse vat</w>
liitt eenä</w>
yksity istä
raho itust
B or
versi o</w>
Bra sili
hen ki
I .</w>
vallan kumo
liitte issä</w>
tuotann osta</w>
nyky iset</w>
ka ttavat</w>
H it
demokraatt ien</w>
Ir besar
A -</w>
ky kene
tu ella</w>
table tit</w>
2 10</w>
t isen</w>
harjoi ttavat</w>
Sco tt</w>
tulo ksiin</w>
jäsenvalti oilla</w>
do ssa</w>
pö r
jo udun</w>
tur haan</w>
et y</w>
hyödy llistä</w>
TI N</w>
to s</w>
ratkaise van</w>
pal a</w>
lähen ty
Ehdo ttomasti</w>
muo toa</w>
Kol man
ker i</w>
erityissäännö ksistä</w>
c hel
a jalta</w>
tas ku
C at
valitetta vaa</w>
raho jen</w>
hallinn oi
kunni oitu
S tu
muu lle</w>
oikeus valtion</w>
maa lle</w>
jalo stus
tui jo
ki pua</w>
järjest ystä</w>
määritel tyjen</w>
av uksi</w>
vasta ukset</w>
direktii ve
kuu li
ituo tteiden</w>
aviir i</w>
Am mu
CA S</w>
Ilme isesti</w>
se ja</w>
polkumyynn illä</w>
edusta vien</w>
g n
Afri kassa</w>
teke minen</w>
tehokka ammin</w>
ANTOREIT IT</w>
a pin
Kää nny</w>
tavoi ttee
olii vi
- Sinä</w>
tu kku
tulo ja</w>
Krei kassa</w>
- Joo</w>
raho itetaan</w>
1. 7.
ä ki
vien tiin</w>
s on
hui pu
Am y</w>
touko kuussa</w>
tu kse
s itko</w>
että isiin</w>
vanhe mpi
d t</w>
S hel
päi vät</w>
ime yty
eri miel
syy nä</w>
ku olet</w>
er -
kein on</w>
tapa si</w>
ajattel en</w>
potila s
armei ja</w>
työllisyy s</w>
tehtä vään</w>
puheenjohtaja valtion</w>
Oi kea</w>
saatta mista</w>
Ni istä</w>
ol ot</w>
ll isi
V aati
EL Ä
johtu i</w>
muuto in</w>
ist ensa</w>
pysä yttä
po hd
is ki</w>
f re
tt ina</w>
rakenta minen</w>
kulje tuksen</w>
o rj
tyh jää</w>
kuu nn
Lyh y
Hall into
pala si</w>
kel e</w>
aloi tteiden</w>
sa masta</w>
ra vitse
pääse vät</w>
H oida</w>
16. 11.2007</w>
miehen sä</w>
ihan aa</w>
a .
vähä inen</w>
vastuu lla</w>
vähentä mään</w>
aja tusta</w>
ss ua</w>
EH D
es s</w>
TARVITTA ESSA</w>
3 50</w>
00 0
täy tynyt</w>
kysy nnän</w>
5 0-
nu ku
toimivalta isille</w>
ly n
kolme ssa</w>
ta antu
av ustaa</w>
V esi
S au
viikon loppu
yty ksen</w>
tapahtu ma</w>
valtuus kunnan</w>
tarp eiden</w>
toimivalta iselle</w>
e d</w>
SISÄLL ÖN</w>
vahing oi
yleis ölle</w>
tavar an
poli it
M eri
vaatimu sta</w>
tuomioistuime lle</w>
osoitta maan</w>
lain an</w>
eläin perä
tke t</w>
taa ksepäin</w>
itse stäsi</w>
tyh jen
itu ksessa</w>
Eurooppaneuvo sto</w>
hei hin</w>
pyr kin
määrä iset</w>
E ts
liikenn että</w>
artik kel
huol ta
O tatko</w>
vah vasti</w>
magne ett
L ee</w>
Ada m</w>
innovaati o
Sin ne</w>
main itsi</w>
pinä ky
HALTI JAN</w>
kiinte ä</w>
ett omasti</w>
tan ssia</w>
do sti</w>
li ika
las kun</w>
teh tyjä</w>
peruu ttaa</w>
Ma y
ä is
tull i</w>
soveltamis alan</w>
kaup paneuvo
katso massa</w>
Willi am</w>
Per us
23 .</w>
Va ka
ha ju
M alta</w>
astei tta
L .</w>
raha sta</w>
pu he</w>
na isilla</w>
f ran
tarkoitett uun</w>
mi e</w>
kkuu s</w>
V -
kuu hun</w>
Dav e</w>
juh la
ch ten
T é
kansall isesti</w>
ust yö
Te d</w>
suora a</w>
etta isiin</w>
neu tro
kää nn
Su ku
vaike udet</w>
na isiin</w>
ko s</w>
d al
as u</w>
B au
tarkistu sten</w>
radio aktiiv
y dy</w>
Lääkä ri</w>
18 2</w>
suositel tavaa</w>
Yhte isen</w>
pää ltä</w>
kokemu sten</w>
ik kel
häipy ä</w>
-alu e</w>
val on</w>
r ista</w>
ohjel mista</w>
nn asta</w>
luok itellaan</w>
luetelma kohta</w>
kiel en</w>
inf or
halu sivat</w>
ra jaa</w>
Euro sta
tär kkel
ain eelle</w>
toivo ttavasti</w>
tapau kset</w>
mur u</w>
neu von</w>
uh ta
ss ista</w>
joul ua</w>
oll isten</w>
mitta us
sotila s</w>
Suo jel
---- ----
E :n</w>
vira stojen</w>
m mia</w>
g ri
c -
työ voiman</w>
kiinn itetään</w>
Ty tö
P ikku</w>
va inen</w>
tila stojen</w>
määrä aikaa</w>
sänky yn</w>
e töntä</w>
he mm
A ir
w or
estä mään</w>
n eille</w>
Japan in</w>
Ti i
koske valla</w>
he h
er ehd
II ä</w>
sa isin</w>
le yn</w>
f ar
C AS-
tt eella</w>
sopimu ksista</w>
korke intaan</w>
säädä nnön</w>
vähemmistö jen</w>
istä mme</w>
T au
Pyy dä</w>
tila isuu
sula utu
laaja sti</w>
ä pä</w>
es itystä</w>
yhtenä inen</w>
saa tettu</w>
s kaa</w>
er ään
liik keen</w>
Pohjo is
tila an</w>
hen kiin</w>
rakenn uksen</w>
e mään</w>
A z
poltto aine
al ku</w>
valvo o</w>
ste isiin</w>
laito ksia</w>
al uo
Mar s
Ei vätkö</w>
infekti o</w>
di mme</w>
päälle kkä
A ri
ito sta</w>
ol y
ite en</w>
PA N
ika lla</w>
f eder
voi mis
to nnin</w>
ss on</w>
nor mien</w>
vahvista maan</w>
il maa</w>
sovelletta via</w>
ker a</w>
ET Y
paika llisia</w>
osallistu misesta</w>
vahing oittaa</w>
pääty ttyä</w>
yksik ään</w>
äi dille</w>
kon etta</w>
säännö ksistä</w>
ol isikin</w>
k n
Lu in</w>
et on</w>
va si
johd on</w>
PÄÄ TTÄ
Koso vo
18 9</w>
sitoutu u</w>
kir ur
an t
tarvitta van</w>
täytäntöönpan os
Pal esti
Tiedo te</w>
Hy p
ko d
h itossa</w>
D ur
A ss
prior ite
b ensi
J ar
sti edot</w>
sa v
Sano taan</w>
Portug alissa</w>
u u</w>
tuoll ainen</w>
ust in</w>
amm u</w>
D A</w>
6 -</w>
vapau teen</w>
MI EN</w>
Car l</w>
C ol
kor vaa</w>
kirjoi ttanut</w>
B oo
le ff
Tar koitu
Ta pan</w>
kon sa</w>
T K
R ed
seuraa vissa</w>
elä mää
aiheutta ma</w>
turvallisuus -</w>
plas massa</w>
hoid ettu</w>
hallinnoll isia</w>
esi a</w>
au ttanut</w>
markkina järjestelyjä</w>
elä mästä</w>
kumppan i
vasta isia</w>
seuraa vaan</w>
p ilo
laajentu mis
Haitta vaikutukset</w>
Elä mä</w>
ty in</w>
päätöslausel maa</w>
et o</w>
p eni
maito a</w>
lain ata</w>
käytettä v
LU OK
Ta bletti</w>
aloi tte
SI S</w>
kis ää
Jatka kaa</w>
Unka ri</w>
sitoumu sten</w>
li ity
f ero
av usta</w>
al fa
Asi at</w>
tä miseksi</w>
ttä viä</w>
ni en</w>
saavutta maan</w>
mi ttar
VÄ T</w>
kyse iselle</w>
Kysy in</w>
tälla iseen</w>
pallo a</w>
lyh en
enemm istön</w>
aiheu ta</w>
ra it
onn ut</w>
pa u
y ksen</w>
puhel u</w>
klo or
CYP 3A
Ä IS
us o
res isten
OS A</w>
yhteiskun ta
työ ryhmän</w>
ly kkää
Sano inhan</w>
ETA-täydenny sosassa</w>
tahdo t</w>
oikeusasia mies</w>
kk ite
PA IN
ti lta</w>
ksi ksi</w>
S ö
täydell isesti</w>
mpu t</w>
toimi ttanut</w>
pi h
Tul et</w>
muuto ksiin</w>
3 7
tau ti
rakenneuudistu ssuunnitel
koske mattomuu
j eet</w>
palvel usta</w>
hen kensä</w>
X -
T -</w>
Kerr an</w>
I stun
toimeen pano
35 4</w>
j ur
ili ja</w>
en nyt</w>
rak kaus</w>
voima kkaa
M r</w>
is y
lupa si</w>
ke y</w>
je si</w>
rah alaito
Tälla isia</w>
A vi
puite ohjelman</w>
uu ko</w>
tä misen</w>
ihm että</w>
julka istu
US A:n</w>
D -</w>
va s</w>
pake tti</w>
komis ario</w>
Ken raali</w>
28 .</w>
sil mi
nau ta
määritel män</w>
asu vat</w>
talou dessa</w>
sosiaal isten</w>
liikku u</w>
jou kon</w>
har kittava</w>
du ista</w>
loukka antu
he hta
sisäll ytetty</w>
myynn istä</w>
aav istu
viitta avat</w>
tas oilla</w>
pal kkaa</w>
ato mi
huoma ttavaa</w>
rakenta miseen</w>
Ta iste
ole valla</w>
hull u
edell yte
tt isen</w>
nuoris o
var usta
va koo
te eseen</w>
toistu vasti</w>
pitä en</w>
onn ie</w>
ka maa</w>
Britann ia</w>
A B
Hertsego vin
Tavoi tteena</w>
Mol do
sija inti</w>
kapasite ettia</w>
0 8
lähte istä</w>
e me
de mme</w>
Mieh et</w>
tappa vat</w>
mmä ssä</w>
li enee</w>
kaik keen</w>
S M
Min äkö</w>
otta misen</w>
mo jen</w>
kelpo isia</w>
talous politiikan</w>
ke ro
K ES
rahoi ttamiseen</w>
ponn istu
oll ista</w>
st olta</w>
kansa kuntien</w>
ympäristö ssä</w>
anne tut</w>
keh itetään</w>
vit sa
parlamen tti
ilmaistu na</w>
ymmärr että
ulkos uhte
kau sia</w>
att ar
vihre ä</w>
udu taan</w>
ma ise
merkin nät</w>
hava ita</w>
kuole vat</w>
etto mia</w>
S EK
Ha kemu
kalta inen</w>
standar dit</w>
Tei mme</w>
M edi
viime iset</w>
valmis tus
taa lla</w>
sto on</w>
huone ese
huole hdi</w>
an tuu</w>
luo kka
ro olia</w>
po mmi</w>
N aa
Bulg aria</w>
A ll
voi tto</w>
po t
ja uh
auring on
ystävä nsä</w>
luonnon varojen</w>
sop ia</w>
aluee lliset</w>
Ro oman</w>
mp pu
monimuoto isuuden</w>
kohta iset</w>
inn on</w>
elä vien</w>
tavar an</w>
mi etti
vir taa</w>
v ö
ik e</w>
epä suotu
vaadi ttava</w>
valti olle</w>
IN G
tavoi tteeseen</w>
ta ani
an e</w>
koti maa
tämän päivä
Nu mer
An der
Päätös lausel
As h
b e</w>
Ky llä
pito isuutta</w>
käsittele vässä</w>
istun to</w>
injektione ste</w>
lai van
aal isen</w>
vero ja</w>
Kir jo
Interna tional</w>
in tre
Si eltä</w>
An dy</w>
keske iset</w>
tila t</w>
sala inen</w>
määr itetty</w>
itu u</w>
yle ise
men tti</w>
kunin kaa
kasvo t</w>
bi e</w>
etsin tä
Ol itko</w>
hu mala
A mma
sosiaal itur
erä itä</w>
P ho
vuo k
aiheutu vien</w>
S Y
tt ista</w>
een vaihd
Anne taan</w>
van haa</w>
teke mä</w>
varmuu s</w>
vall itsee</w>
itu ista</w>
Mik ro
alo itetta</w>
me d</w>
ik ää</w>
uudistu sten</w>
Pysä hdy</w>
markkina talous
ta maan</w>
ss aa</w>
huoma tta
ara ha
tutki taan</w>
De uts
Kali for
ään en</w>
kyse isestä</w>
is tit</w>
ELL A</w>
myönne tyn</w>
Lähi-i dän</w>
Pu hd
l on</w>
tuon tiin</w>
mu sten</w>
ti man
jota kuta</w>
valmis tuksessa</w>
luonn on</w>
ko kenut</w>
ki u
poliitt isesta</w>
rakenn etta</w>
ly ä</w>
Pahoi ttelen</w>
toi da</w>
nau ttia</w>
oma isuu
ma ri</w>
tarvitta vien</w>
ss e</w>
maa per
OIT E</w>
G ro
o ko</w>
käyttä jän</w>
Vo isiko</w>
vasta kka
Työ nteki
Lu ci
periaa tteista</w>
myön si</w>
ensisija inen</w>
Luo ta</w>
surke a</w>
IK EU
yr itin</w>
kalta isia</w>
pidä tetty</w>
omina is
tilaa t</w>
ön tä</w>
pää stään</w>
h ala
riko s</w>
mi tt
kanna ttaisi</w>
merkity ksen</w>
kur ssi</w>
k ry
yksin ään</w>
ne ula</w>
erinoma inen</w>
pantti van
yy kö</w>
teknolog ia</w>
sti e
kulttuu ri</w>
Vali o
ver kko</w>
tarjo us</w>
ku s
C oll
tapahtu nutta</w>
standar deja</w>
päätö kse
kohd issa</w>
angio tensi
tto maksi</w>
kuoll eita</w>
kkin i</w>
K in
ko lle</w>
jäsenyy ttä</w>
TA A</w>
M ann
ma juri</w>
korkea mpi</w>
kan toja</w>
a jel
Lai tan</w>
oppin ut</w>
vir us</w>
arvio innista</w>
AU C</w>
vä ki</w>
otta misesta</w>
margin aali</w>
ilmaston muuto
Neuvo stoli
torju nnan</w>
En tä
vali taan</w>
päälly st
Mei dät</w>
kesku sten</w>
julk ista
mieh istä</w>
ko kai
Kahd eks
Tule va
Rau ta
vast een</w>
valuu tt
ter min
palvelu ksessa</w>
hyl käsi</w>
tunnust etaan</w>
kuva taan</w>
ole villa</w>
osall istu</w>
henkilö lle</w>
d ge</w>
Lähe tä</w>
turva llinen</w>
yli ttävät</w>
val en
198 6</w>
usko vat</w>
jao ston</w>
EM OT
ttei taan</w>
tukit oi
tta mis
kaus ina</w>
monen välisten</w>
ominaisuu ksia</w>
Pöy tä
Au tan</w>
käsi ksi</w>
sella isina</w>
ilmo itettiin</w>
väär ää</w>
Maa stri
12 3</w>
kiel i</w>
uut inen</w>
myöntä nyt</w>
ty illä</w>
käyte tä</w>
T est
vero jen</w>
gra fi
S uhta
llis istä</w>
me lla</w>
me in
Tälla iset</w>
Pu h</w>
toimen pidettä</w>
usko matonta</w>
a voin
anno ksia</w>
kkau s</w>
ba b
te ko</w>
syys kuussa</w>
aikaan saa
it sit</w>
D IS
mä si</w>
yrity ksissä</w>
pu llo</w>
lu s</w>
o tin</w>
korke u
a malla</w>
jä y
sisäll y</w>
riittä vää</w>
osuu s
SEURAA VAA</w>
R AN
le mp
D y
väärin käytö
val itus
tammi kuussa</w>
ko lo
Val tion
istu nut</w>
P ai
ulottu vuus</w>
ser tifi
va ri
ll yn</w>
Talou dell
synn yttä
neljä nnen</w>
vahvista nut</w>
che r</w>
Venä jällä</w>
ehdo in</w>
Varo kaa</w>
Ra kas</w>
työttömyy den</w>
hankke eseen</w>
poikke usta</w>
opetta ja</w>
ile tko</w>
Li itty
PAKKA US
ka mu</w>
ikö hän</w>
Maastri ch
x -
voimassaol o</w>
tah toa</w>
ihme essä</w>
M ai
hd it</w>
jo o</w>
Pe g
0, 5</w>
au toja</w>
a ts
eli a
Jas on</w>
huo menta</w>
johta jien</w>
er ille</w>
varsin a
To si
vel ko
ehdo ista</w>
Täy täntöön
va mme</w>
lyhy taika
sylin teri
parlamen ttiin</w>
ustuo tteiden</w>
mukau ttaa</w>
mikro grammaa</w>
ke ita</w>
ilma-alu ksen</w>
rahali iton</w>
men oista</w>
lisä ys</w>
U udet</w>
va nn
piste ttä</w>
kke itä</w>
st un</w>
tunn etaan</w>
han ki
teke mällä</w>
its isi</w>
haki ja</w>
a miseen</w>
Tark istu
la k
kirj e
Lie chten
no sta</w>
isel itte
B -</w>
tapahtu vaa</w>
jatku van</w>
vahing ossa</w>
ha m</w>
henkilö stö</w>
Voi maan
yl itä</w>
va ik
sta kaa</w>
liikenn ö
me hil
pla se
parlamen ttien</w>
es itys
UH TEET</w>
CB- CO-9
edellyty ksistä</w>
lope tettava</w>
K IL
- Eikö</w>
aika iset</w>
Haus kaa</w>
A 5-0
sokeri alan</w>
Car ter</w>
12 6</w>
tahto o</w>
rea kto
liik e</w>
huo ra</w>
ku olen</w>
suunn itt
kumppan i</w>
ik äär
huomio tta</w>
Teh tä
myyn tiin</w>
elintarvi kkeita</w>
sala isuu
a janta
ll isestä</w>
NA CE</w>
II e</w>
Atlan tin</w>
terveys -</w>
tele e</w>
a stu
. ht
kysy y</w>
kustann uksella</w>
Kon gon</w>
luo miseksi</w>
ale ja</w>
tasapaino a</w>
ehdo tettu</w>
kirj een
auto no
Pet e</w>
yh täältä</w>
tö ön</w>
ki h
ir i</w>
Laa jen
pää tettävä</w>
C C
luoki ttele
suos itusten</w>
Oso ite</w>
tuotann ossa</w>
po sti</w>
ajo kykyyn</w>
pääte llä</w>
C le
Jo ey</w>
kohte eksi</w>
järjestel missä</w>
Suo messa</w>
- Mutta</w>
pu ku
op äi
kir joissa</w>
hermo stu
: ää</w>
ino maista</w>
F -
taistelu ssa</w>
asu nn
T ru
Palesti inan</w>
mur haa</w>
TE MA
Lähd emme</w>
arvonlisä vero
so tu
vaki o
lä pinäky
an toivat</w>
O K</w>
D .</w>
teki jän</w>
ss u</w>
ol isiko</w>
kala talous
kuu dennen</w>
sata ma
it ke
sis koni</w>
kärsi vä
H un
4 50</w>
. europa.eu</w>
lo i</w>
helpo mpaa</w>
demokraa tit</w>
tasa verta
kar kuun</w>
ttel uun</w>
vaatimustenmuka isuuden</w>
rapor tissa</w>
Tun te
De x
e pide
To isen</w>
alkuperä inen</w>
tiety n
kysy n</w>
so dassa</w>
lähd etään</w>
elin kelpo
an neet</w>
pysty mme</w>
O IKEU
erytropoi eti
TU KSET</w>
ri kas</w>
lenn on
ar issa</w>
puol ustu
puhel un</w>
amma tt
tihe ys</w>
mioistu in</w>
menetel mällä</w>
ity kseen</w>
huoma ta</w>
an -</w>
koul ua</w>
ensimmä iset</w>
opal vel
ma tala
alkuperä nim
jäsen eksi</w>
Milla ista</w>
A v
pako lais
va ino
alkoh olia</w>
vuo rist
M oni</w>
O per
vara st
so sa</w>
liitty nyt</w>
kilo gra
iste tty</w>
29 .</w>
te itte</w>
0 2
kon sen
Pi dät</w>
Kiin assa</w>
terveyden huolto
mb er
Ry an</w>
verko t</w>
u issa</w>
tule via</w>
Var ti
kansallis issa</w>
itu ssa</w>
lau laa</w>
kaas ua</w>
a asi
osa valtion</w>
mp pu</w>
mi lli
gl ys
aven tis</w>
Tarvitse tko</w>
S han
muu ttanut</w>
kakso is
hen keni</w>
alku a</w>
pro du
yksittä isiä</w>
Tun sin</w>
ber g</w>
kudo s</w>
koordino inti
hin toihin</w>
tan ko</w>
lähd ettävä</w>
Suu r
moni lla</w>
koro stettava</w>
Eri c</w>
tunte vat</w>
puhel i
oikeudell iset</w>
Ystä väni</w>
Amm u</w>
1. 5.
ol taan</w>
ir besar
st än</w>
sano maan</w>
r el
tu pako
han kal
ks istaan</w>
Yr itämme</w>
Po istetaan</w>
ras kau
kala stusta</w>
ranga istuksen</w>
h i</w>
In dust
suur elta</w>
sano fi-</w>
ll y
kaupun kia</w>
Yh tä</w>
26 .</w>
kerta inen</w>
Kansainväl inen</w>
rajo itusten</w>
pare mpaan</w>
ista pa
hu u</w>
Ehkä pä</w>
y din</w>
sop i</w>
ket ju
C N
- Minulla</w>
ylä puolella</w>
la isille</w>
kyken e</w>
koulu jen</w>
osallistu nut</w>
tekni ikkaa</w>
kul ma
kos kivat</w>
por t</w>
k rei
tel tava</w>
ll isiksi</w>
aloi tteet</w>
24 .</w>
Li ha
ko le
P C
ulko maan
määritel mä</w>
lla kseen</w>
fer ens
vase mm
ryhd y
näkö kohtien</w>
käyttööno tosta</w>
test it</w>
ste tään</w>
Ju mala
epäi llä</w>
Otta en</w>
va ste
Poi kani</w>
itte kö</w>
rekisterö ity
l on
dä ssä</w>
yhteis kunnassa</w>
vil ja-
valvonta viranomainen</w>
pel kään</w>
vahvista miseksi</w>
te s</w>
hoi de
L IN
Interne tin</w>
taloudell isesta</w>
er iin</w>
m ö</w>
jäte ttävä</w>
esi ttämä
De an</w>
r ite
järjestel mällä</w>
Oli pa</w>
Ko ro
ro mu
vii ri
ppe jä</w>
kirja taan</w>
keho tti</w>
kana van</w>
ryh miin</w>
aa kaan</w>
CH MP</w>
pysä kö
ä mmä</w>
poi kansa</w>
syy llinen</w>
o miin</w>
u ista</w>
mer i</w>
vie tiin</w>
raporto inti
TOIM ET</w>
S yl
jää tel
joukko ja</w>
ede stä</w>
ri -
kkää t</w>
12 1</w>
pää sit</w>
risti ri
it ulo
V eg
piir in</w>
os y
le mpi
Y hti
Tutkimu s</w>
Je stas</w>
uu sille</w>
näke mään</w>
keino teko
A t
syö nyt</w>
rekiste r
pidä ttä
ell en</w>
i än</w>
aavistu stakaan</w>
Oike us
1 15</w>
tu ksiin</w>
h ope
Val ti
tuo mit
televisi o
Co m
uu delle</w>
takaa miseksi</w>
päätöksen sä</w>
asetu kset</w>
ty lle</w>
pen ia</w>
T hai
Kana dan</w>
testa us
tera pi
aptee kkiin</w>
t isti</w>
Clar k</w>
re t
Sella ista</w>
ve lla</w>
li kaa
ino ita</w>
lisäy ksessä</w>
Y KS
tiedo tu
mma s</w>
27 .</w>
väki valtaa</w>
i ma
Tu k
typer ää</w>
tunte maan</w>
kunn o
lik vid
kulje tus</w>
Ja t
amm oni
Toivo mme</w>
Ra tka
o saat</w>
ajo i</w>
- Ehkä</w>
sijo itu
es ityslista
Nel jä
4. 2.
kalastus politiikan</w>
ista kaa</w>
hyödy nn
Si e
tili en</w>
mon op
for d</w>
ran kkaa</w>
ka sa
juo ma
h on
................................ ................................
laj i</w>
Har mi</w>
liikku a</w>
isi ltä</w>
z ab
lä iset</w>
puhu ttava</w>
tieto -</w>
ti ettyyn</w>
kaas u</w>
esittä mistä</w>
PER US
IA ALI
seuraamu ksia</w>
aihe ena</w>
Koke ile</w>
hu olen</w>
ma tal
järjestel mistä</w>
velvollisuu tta</w>
va mpi</w>
todistu sten</w>
talo sta</w>
kaa ppa
siirtymä kauden</w>
hinn oi
f er</w>
muuttu i</w>
keng ät</w>
ka isi
ensimmä iseen</w>
ks ikö</w>
asetta mista</w>
ly ö</w>
yhd elle</w>
vapautta mista</w>
Aust r
liike toiminnan</w>
apu lais
Valko- Venäjän</w>
kuul unut</w>
ystä vät</w>
puhd as</w>
potilaa lle</w>
valvonta viranomaisen</w>
sano isi</w>
pyrstö numero</w>
allerg inen</w>
Alu ee
suhd etta</w>
ta kaan</w>
sor kka
käsitel tiin</w>
eläin lääkintä
tai de
usa se
t ini</w>
ihmis ravinnoksi</w>
tapoi t</w>
st eessa</w>
silmä si</w>
pro pa
Ukra in
ohjel missa</w>
hallin taa</w>
13 9</w>
suunnitel mien</w>
korkealaa tu
ain eille</w>
mu kseen</w>
kokemu ksia</w>
Tun isi
Ku va</w>
haitta vaikutus</w>
din g</w>
pa han</w>
omista ja</w>
mp el
Lat vi
tarkoite tulla</w>
tap ettiin</w>
Yksity is
Bry ssel</w>
er isty
ajoneu vo</w>
r ä</w>
muuttu vat</w>
koke ita</w>
elä in</w>
määri in</w>
M Ä</w>
sy ven
lyö dä</w>
se ikka
sa in
toim in</w>
to ko
i mu
aloi ttee
Tuo kaa</w>
Po jat</w>
Ä kkiä</w>
kun inkaan</w>
ase ma
sp esi
määrä nnyt</w>
Perustamis sopimuksen</w>
sin g
ki at
järjestö jä</w>
huoma ttavan</w>
tä hti</w>
1 14</w>
pidä ttää</w>
perä kkä
ajoneuvo t</w>
W ol
i j
A PU
re jä</w>
organ iso
olog inen</w>
jää nnö
talo a</w>
ky yli
na si</w>
is h</w>
tutkimu ksista</w>
B as
ka du
ase malle</w>
rahasto a</w>
varust ettu</w>
var maa</w>
Ko hd
0 9</w>
Si mon</w>
paika llaan</w>
op o
sattu i</w>
e ksy
In ho
viita ta</w>
po iste
löytä neet</w>
ksen sä</w>
Ma tt
toisen sa</w>
peri ksi</w>
Lim ited</w>
valehte le</w>
sö pö</w>
sy to
vi ka</w>
johta isi</w>
s ua</w>
ES TÄ</w>
onnistu neet</w>
S ou
Re kiste
kanta jan</w>
Se ur
riippuva inen</w>
hä mmen
yr itämme</w>
vihanne s
anti bioo
sisä markkinoilla</w>
Tul eeko</w>
Miel estämme</w>
C IA
luu levat</w>
siv isty
aio tte</w>
vamma isten</w>
mahdollisuu desta</w>
kri isistä</w>
ta kuu
viime in</w>
k isin</w>
G UE</w>
Toimen pite
lasku a</w>
TIET O
parlamen tilla</w>
koke et</w>
kansa llisista</w>
it ro
iti atsi
M aa</w>
tin yt</w>
sp on
saa miset</w>
o min</w>
ri isin</w>
kesku stellaan</w>
isin kin</w>
ko ur
ihottu ma</w>
tu ksella</w>
in illa</w>
ho ris
Ja tke
tuli pal
ja h
V V
L :n</w>
liitt o</w>
kysy ttävää</w>
saatta minen</w>
fer oni</w>
3 4
ko e</w>
Vir anoma
sala a</w>
la sin</w>
henkilö istä</w>
korva amaan</w>
kerro taan</w>
9 9
valta van</w>
op in</w>
jäsen elle</w>
ilmais ulla</w>
Jo u
miehen ä</w>
kolleg oi
V O
ole vissa</w>
nimi ttää</w>
ju missa</w>
e x</w>
pyynnö t</w>
1. 2</w>
kanta ja</w>
mainitu ista</w>
lai llisesti</w>
kasv us
jää kaapissa</w>
Ma tt</w>
san oitte</w>
toim ist
merkintö jä</w>
US E</w>
-alu eilla</w>
tutkin ut</w>
ann oit</w>
ajanta sa
sano ttiin</w>
le hti
jo en</w>
val tavasti</w>
l erin</w>
T ET
käyttä jille</w>
aiheutta man</w>
AIN E
loppu i</w>
Täy dell
ruo an</w>
Oike astaan</w>
tarpee llista</w>
sairau den</w>
kärsi i</w>
ala kohtaa</w>
tuotannon ala</w>
ko ti</w>
mul kku</w>
el py
Alu e
1 18</w>
edusta jana</w>
Hu ll
Herr an</w>
En tinen</w>
tu lop
tila lla</w>
näyttä mään</w>
mmi ksi</w>
Näy tä
G oo
aal in</w>
toteu ttanut</w>
huomautu ksensa</w>
lisäänty minen</w>
le po
yttä vää</w>
suhte ista</w>
sella isesta</w>
saa ttanut</w>
la it</w>
Kaik issa</w>
n issa</w>
vero velvo
päätö ksistä</w>
meri -
luu tnantti</w>
hi er
kään tää</w>
tuo ttavat</w>
tion s</w>
havaitse t</w>
Seuraava ksi</w>
tann on</w>
ne isiin</w>
huomautu ksen</w>
poliitt isista</w>
byrok rati
on kaan</w>
er äät</w>
HA KE
pain aa</w>
mekanis mi</w>
lisään tyy</w>
käyttö kykyyn</w>
et s
työ stään</w>
Joka isen</w>
kur ssin</w>
kad ulla</w>
w in</w>
hallinnoll isen</w>
a È
RO N
ini -</w>
käsittel ystä</w>
r it
koul u</w>
tasa vallassa</w>
muka ansa</w>
N an
työskentel y
sovelletta vista</w>
hei ltä</w>
anto on</w>
Ä i
he u
S t</w>
sil miin</w>
pel iin</w>
mainitt ua</w>
luo kseen</w>
Var maan</w>
- Anna</w>
seka antu
pyst yn</w>
Pää se
op pa
an ssi</w>
ribaviri inin</w>
lähett ilä
i assa</w>
verko sto</w>
vakiin tu
ulkoma illa</w>
la kisää
juh lia</w>
al ani
tte ensa</w>
pyyntö ä</w>
kolleg o
protei in
O ma</w>
t hi
väliaika inen</w>
pidä tys
hygi eni
woo d</w>
Kari bian</w>
yhteiskun taa</w>
ver osta</w>
ve ssä</w>
tarkistu ksista</w>
saira an
nä stä</w>
perhe esi</w>
Jä tän</w>
ku vernöö
ir to
h iton</w>
A nti
toteutta misessa</w>
muukala is
viera ita</w>
aja tellen</w>
Ih on</w>
F en
päätö ksiin</w>
Tyy nen
työ ttö
Ty ttö
muuto ksen
Lähe tän</w>
ty neet</w>
kuukau dessa</w>
P IT
- vuotias</w>
uudistu sta</w>
t ha</w>
poista maan</w>
säil ytetään</w>
osu i</w>
li in</w>
eme a.</w>
ulko asiain
mättö män</w>
pain eita</w>
c ky</w>
Latin alaisen</w>
5 43</w>
Osaa tko</w>
AS IA</w>
ymmärr ettävä</w>
vah ti
tu ha
ministe rit</w>
tuom itse
liitto valtion</w>
joh to</w>
taso t</w>
oi reiden</w>
liike toiminta
kon ferens
kohd a
alfa -</w>
toimi elin</w>
tapau ksista</w>
tiede tä</w>
ket jun</w>
toimi lla</w>
henkilö illä</w>
yle isestä</w>
te ttuna</w>
mman kin</w>
Tar p
Ki inn
ta alaa</w>
ne ensä</w>
na mme</w>
e tan
tapa us
ppi s</w>
Ch lo
taiva s</w>
Istu kaa</w>
A M
lu pien</w>
verkko on</w>
kl in</w>
e u
utu misesta</w>
sol mi
kloor itiatsi
ho mo</w>
f uusi
di fi
Ta ylo
1 19</w>
tasa- arvon</w>
mi ks
oi s</w>
vil ja
pienen tää</w>
han ke
Me hän</w>
e staan</w>
S her
S S
Min iste
toi pu
Ste p
peruste in</w>
käyte tyn</w>
yhdenty misen</w>
työll istä
ll an
tty ihin</w>
yks iselitte
työnteki jän</w>
toimin not</w>
tilo issa</w>
sin o
man n</w>
Z im
Belgi assa</w>
yksityiskohta isia</w>
in d
hyö ty</w>
I ä
vau van</w>
pe se
kerro ttava</w>
kasva ttaa</w>
F le
vie mä
histori aa</w>
T- sopimuksen</w>
tehtä vissä</w>
Y K</w>
sylinteri ampu
-A mer
palvel ua</w>
Lä hte
tuonn ista</w>
puuttu minen</w>
juhli in</w>
Maail ma</w>
varo vasti</w>
rann ikon</w>
le mmi
ympäristö lle</w>
voi lle</w>
lli e</w>
vaale issa</w>
i mp
laino ja</w>
F ra
17 84</w>
kah vi
vast in
olenna ista</w>
Ver ta
muodo t</w>
Voimaan tulo</w>
nime ssä</w>
paiko ista</w>
enn a</w>
HAKE MISTO</w>
I nno
laa ja-
järke vä</w>
er ittel
ity y
erity isten</w>
kamer a</w>
isto sta</w>
yh mässä</w>
u ttava</w>
Elintarvi ke
ystä vän</w>
ruumi in
mi aa</w>
järjestely istä</w>
Var mis
Tutkimu ksessa</w>
mu ksesta</w>
lo ks
D oh
lähen tämisestä</w>
ki ven
demokra tia</w>
joh tuen</w>
tosi asiassa</w>
kohd enn
hakemu ksia</w>
ess äsi</w>
KU N
tehd yissä</w>
Eli zab
t oli
oto kseen</w>
kuning atar</w>
S ÄÄ
Kul ttuu
ry t
vaka van</w>
rakasta t</w>
Ene mmän</w>
päättä neet</w>
Ver en
Lupa sin</w>
o w
jälje lle</w>
si ko</w>
peruste tun</w>
nor meja</w>
R av
yhteisymmärry kseen</w>
vahvista vat</w>
T as
- 3-
vara staa</w>
pelä tä</w>
kerr oit</w>
jul istus</w>
huhti kuussa</w>
euro se
tiedoksi annettu</w>
Ma ksu
IL LE</w>
kö hän</w>
a joi
vo ita</w>
tel ua</w>
krea tini
0- luvun</w>
- Jos</w>
sovelta miseen</w>
an g
Ta vataan</w>
laa t</w>
kulu jen</w>
rohke utta</w>
maailmanlaaju isesti</w>
itä tte</w>
Strasbour gissa</w>
esiin tyi</w>
R J
Kaik ki
pain e
soveltu vin</w>
Älä kä</w>
var oihin</w>
por no
koir an</w>
A S</w>
viljeli jöiden</w>
valio kun
u ti
krite erien</w>
Z e
Nizz an</w>
Kansa lliset</w>
piir i</w>
E AK
muunto geen
mene te
c c
älä kä</w>
voida anko</w>
valti osta</w>
ime tys</w>
EHD OT</w>
äi din
ky nä</w>
taistel u</w>
ta tuo
kunn asta</w>
miehe stä</w>
löy dät</w>
ymmärtä mään</w>
tarkka il
perustel tu</w>
suspensi o</w>
juu r
ve ja</w>
te tusta</w>
peh me
edisty mistä</w>
alu ksia</w>
T :n</w>
v eivät</w>
miljoon a</w>
sisä isten</w>
itetty jen</w>
aihe en</w>
näke myks
kaver in</w>
au s</w>
vapa ana</w>
Tans kassa</w>
O S</w>
Menn äänkö</w>
ruo kin
hiili ve
kansalais järjestöjen</w>
Te ki
vau hd
on ta</w>
te lit</w>
mu laati
12 2</w>
toteutta mis
suure mmat</w>
näy tö
min en
ma ta
tä mä
saapu i</w>
maailmanlaaju isen</w>
K ER
E riko
20 6</w>
paper i</w>
sijoitta utu
ratifi o
selvi ttämään</w>
Alu e</w>
täy ttämään</w>
tapahtu isi</w>
osoi tteessa</w>
o vet</w>
ko mea</w>
korja us
jal ti</w>
Ta po
utta minen</w>
OS OITE</w>
torjun taan</w>
kaiken laista</w>
herkky ys</w>
henkilökohta ista</w>
Tu limme</w>
Pu hut</w>
v y</w>
luottoluok itus
ar kkite
Miehen i</w>
tunn etu
ää kseni</w>
ta vissa</w>
voima kka
työnteki jä</w>
siirty mistä</w>
ruo ka</w>
paikka ansa</w>
h eiden</w>
Me istä</w>
näkö jään</w>
u teen</w>
ky nää</w>
Kuul en</w>
Z i
N E
verenpain e</w>
us t</w>
R ei
resur ssit</w>
p oike
ku mpa
htu u</w>
e sin</w>
ase esi</w>
PAKKAUKS ESSA</w>
Jo issakin</w>
C ra
si in
Toi voin</w>
3 2-
hei lu
hall isesti</w>
Is on-
va rj
tt ään</w>
el e</w>
rekiste riin</w>
ratka isuun</w>
perust etaan</w>
kuulu vaa</w>
aiku is
E u
tall enn
a puun</w>
löy tynyt</w>
hirvi ö</w>
V ene
13 1</w>
tä vän</w>
sopi vaa</w>
ken tällä</w>
jonkin lainen</w>
To tuus</w>
yksinkerta ista</w>
pun taa</w>
Niin hän</w>
oike ita</w>
Tyynen meren</w>
sa toja</w>
- Voi</w>
olog ia</w>
eh tinyt</w>
ri itti</w>
sop uso
per s
mieh istö</w>
ll ö
kosy stee
er ät</w>
tuo tettu</w>
puhelime en</w>
maks anut</w>
wa y</w>
suunnittel u</w>
ku sta</w>
ehdotu ksista</w>
yhteisö lle</w>
Kypro s</w>
Siin ähän</w>
ui ma
toi missa</w>
ta ks
pro jekti
lo gi
nyky isessä</w>
Hei dät</w>
vuo situ
mon ina
alo itettava</w>
nouda ttanut</w>
ro bo
st ituu
lii ttää</w>
henkilöstö ä</w>
MA R
- Haluan</w>
ta nne</w>
pel issä</w>
lähe tettiin</w>
leviä misen</w>
le ikka
ttor in</w>
r issa</w>
lä mmi
lisä tty</w>
kuljetu sten</w>
itt ujen</w>
ain eesta</w>
si vi
pako laisten</w>
c ho
avoimuu s</w>
puh tau
p istää</w>
nouss ut</w>
PÄÄTTÄ NYT</w>
men etti</w>
Kau nis</w>
.e u.int</w>
yhtey ksien</w>
suk laa
sano tte</w>
määrä llä</w>
järjesty kseen</w>
Käy nn
3. 1</w>
iste mme</w>
toim itu
tapa sin</w>
korru p
jatku vaa</w>
hylä tä</w>
Mar tin
K O</w>
kaik ken
auto lla</w>
itettä essä</w>
edistä mistä</w>
kyllästy nyt</w>
ker ran
josta kin</w>
vapaa kauppa
p että
s kan
M AS
H V
ar o
Suo men
sy tty
sara kkeessa</w>
roop an</w>
materiaal ien</w>
L es
laj it</w>
arka luonte
y ne</w>
vara sti</w>
laajentu mista</w>
voi dakseen</w>
leve ys</w>
käytä vän</w>
päi viä</w>
mukau tu
koti paikka</w>
juuri kaan</w>
horis on
J ää</w>
työskentele vät</w>
Yor kin</w>
luete llut</w>
kiel inen</w>
An sa
tarkastel ee</w>
kansainväl iseen</w>
valvonta -</w>
n -
vaale ja</w>
vakuu tuksen</w>
sisäll yttävä</w>
hy bri
hepati itti</w>
te ita</w>
ki re
e mi
V itun</w>
pan tu</w>
ju ttu
joutu neet</w>
arvio itiin</w>
e favirent
fos faa
Tarko itin</w>
Muka vaa</w>
tti mien</w>
laa jalti</w>
kuole masta</w>
hy vien</w>
hi en</w>
tun to
sitoumu ksen</w>
kansainväl isissä</w>
a in</w>
ol utta</w>
maailma sta</w>
iste tään</w>
Suo raan</w>
K etkä</w>
jo llakin</w>
katso ttiin</w>
ke v
rei tti</w>
nä ette</w>
ihmis iin</w>
uh rin</w>
b a</w>
Re d</w>
Asia kirja</w>
Kä vi
Heng itä</w>
la kkaa</w>
se os</w>
mon d</w>
Zim bab
tieteell inen</w>
järj esti</w>
ilta päivällä</w>
tta vana</w>
g men
ta vien</w>
vo r
va kaus</w>
taki asi</w>
laati minen</w>
käyttä jät</w>
y mp
tu emme</w>
laboratori o
selv itettävä</w>
numer ot</w>
aloi lle</w>
pahe mpaa</w>
ko u
keskustel ujen</w>
neljänn es
main in
Var ast
se i
matku staa</w>
vuoro si</w>
va uh
lintu influen
ulkopuol elta</w>
O tamme</w>
työ markkinoiden</w>
siirr etty</w>
englan tia</w>
up se
tunte ita</w>
kau si
huono ja</w>
E .</w>
suure ssa</w>
pyy dy
suor an</w>
esi merkkinä</w>
en tä</w>
nouda tettu</w>
pu tosi</w>
n taa</w>
es itel
eko no
europa.e u.int</w>
roh ka
tärkeimpi ä</w>
määrä tieto
ila hd
Intro n
näy tteen</w>
ja ettu</w>
Saa tan</w>
hallinno inti
ettel o</w>
ry päle
pää tetään</w>
mu ilta</w>
mar k</w>
kon gre
urhei l
määräraho ista</w>
ilmoitu ksessa</w>
hallinto -</w>
est etään</w>
Sin äkin</w>
oikeu tetusti</w>
lla kaan</w>
pyri mme</w>
- 1-
perust een</w>
ei ttain</w>
OL OS
BK T</w>
vihre än</w>
uh ra
ro ssa</w>
pide tä</w>
keski pitkän</w>
c tion</w>
Phi l</w>
kysy nyt</w>
V en
Huo no</w>
ää dö
käytettä vän</w>
Li by
suunnittel un</w>
et sit</w>
200 0
rakenn us</w>
pääasia llisesti</w>
an teen</w>
su kka
ka iden</w>
Luo tan</w>
vaiku tte
huumausa ineiden</w>
hyvinvo intia</w>
sisäll östä</w>
julkais ujen</w>
A ven
w er
kuts un</w>
kiire inen</w>
Ell et</w>
Jäsen valtion</w>
mi tta</w>
korva ukset</w>
ta via</w>
se ikkaa</w>
rau ha</w>
f e</w>
r yy
puhd ista
ta minen</w>
si vuu
kunnio itusta</w>
mita ttuna</w>
merk itä</w>
is ää</w>
Halu sit</w>
tava nneet</w>
ara bi
z á
ka mala</w>
kauppaneuvo ttelujen</w>
ir in</w>
Am pu
taa ttava</w>
i ii</w>
aloi hin</w>
Ison- Britannian</w>
ver ot</w>
0 3
keskustelu issa</w>
ff in</w>
K la
ta seen</w>
po is
ar iin</w>
U D
vapautta minen</w>
lähe mmäs</w>
ttu kaa</w>
lle ssaan</w>
valtu ust
ei lle
18 5</w>
men oa</w>
ensimmä isten</w>
tapa usten</w>
mme tin</w>
tila sta</w>
S ti
yleis hyödy
etta vaksi</w>
vähentä mistä</w>
pel aa</w>
aika isen</w>
TÄMIS EKSI</w>
Rau hoi
Ny tkö</w>
Euro -
nä mme</w>
impi a</w>
IS TE
BS E-
mul ti
kuu kausina</w>
jäädy te
ban aan
Sus an</w>
Sy dä
Ai oin</w>
vo iton</w>
p öl
ensimmä iseksi</w>
W ill
Tuo n
itt ia</w>
Ra y
Her mo
suostu mu
nne tään</w>
Tie tojen</w>
jo udu</w>
H ur
toi ko</w>
kest änyt</w>
saira us
AR VI
5 000</w>
petty nyt</w>
peto sten</w>
Juma lauta</w>
Hi e
Ava tkaa</w>
sisä iset</w>
ra hti
nyky isiä</w>
C am
esiinty mis
Tuk hol
loukka antunut</w>
Tar kka
vel kojen</w>
tehd yistä</w>
harjoitta ja</w>
il maan</w>
ha jau
lopu llista</w>
PER ÄIS
varasto inti
ta lla</w>
kuu me</w>
no s</w>
perust ella</w>
kuulu mattomat</w>
b ec
voi tti</w>
e ma</w>
halu ta</w>
Erity iset</w>
sta maan</w>
rajo itetaan</w>
ol etta
mm in
ko menta
vase mmalle</w>
sitoumu kset</w>
imi kke
A ar
kutsu ttu</w>
hi e</w>
de ista</w>
diplo maatt
stu kseen</w>
Kansa llisen</w>
teke mästä</w>
n us
ke ri
vii des</w>
liitty minen</w>
Ol koon</w>
tieli ikenteen</w>
ne uro
kr iti
d erin</w>
työ paikkaa</w>
kau la
ite tyt</w>
is ul
päivä ksi</w>
puolu e</w>
löy dy</w>
Yr itätkö</w>
väli in
e kosystee
usea mpia</w>
Han k</w>
T TÖ
het kinen</w>
Te sta
pu no
in o</w>
h oll
L isa</w>
yhteen ved
t olaito
su inkaan</w>
gli ta
Pel kää
pahoin vointi</w>
Ole t
tta isin</w>
taud in
estä vät</w>
a ito</w>
D NA</w>
täy ttä</w>
asiakka iden</w>
yhtey den
tarjo amaan</w>
ell et</w>
säily y</w>
u mpi
tervetull eeksi</w>
tarkoite tusta</w>
kansan puolueen</w>
Vel jeni</w>
sa ma
varova isuutta</w>
täytäntöönpano asetuksen</w>
Saa ko</w>
taloudell isista</w>
sar jan</w>
Tu tkin</w>
to geen
ole ellinen</w>
E ni
ku olivat</w>
Man u
15 80</w>
me to
riippumatto man</w>
am en</w>
Al -
kaupun gin
kann e
ihmis illä</w>
Kliin isissä</w>
sähkö post
e va
Laus un
velvollisuu den</w>
tekst iä</w>
an tojen</w>
tulop äi
lisä arvoa</w>
jo udut</w>
iss anne</w>
avoi men</w>
normaal isti</w>
saan eiden</w>
ra jalla</w>
paljo a</w>
vasta u
tt iko</w>
sovelletta vasta</w>
1 16</w>
tee ma
järjestäyty neen</w>
Odo ta
yhdistel mä</w>
st oihin</w>
anne ta</w>
ajan kohta
Is lannin</w>
pitä minen</w>
näyttä isi</w>
la itetta</w>
J al
sydä men
pur kau
tarvits isi</w>
eläm ääni</w>
Min äpä</w>
- ryhmän</w>
säil yty
palkin non</w>
miljoon aan</w>
vahv istu
työnteki jää</w>
Myö hä
vaih tu
se ksi</w>
maatalou tta</w>
vuotu inen</w>
sella isista</w>
kamp pa
nöyr yy
kaupan käynnin</w>
Par asta</w>
syrjä isi
oma isuutta</w>
Seura a</w>
Insu liin
san aakaan</w>
tuonti arvot</w>
P OL
paho ja</w>
ite etti</w>
P .</w>
o l</w>
kaver ini</w>
aikataul un</w>
ttä vissä</w>
e minen</w>
Pol y
politi ikkoja</w>
määrä ttyä</w>
kaa vi
tekn isesti</w>
myynn issä</w>
kohta uksen</w>
n enä
ilmo itusta</w>
TU R
vuosi kymmen
toimieli miä</w>
hyväksy neet</w>
uut iset</w>
oll y</w>
Tul ee</w>
energialähte iden</w>
A B</w>
merkin nö
joh tol
demokraatt ista</w>
asete ttujen</w>
al ar
lopul takin</w>
Tu lit</w>
F ri
ky n</w>
sta kin</w>
pain een</w>
IS EN</w>
vaiku tel
jär isty
tyy dy
tu pakka
krite er
ka ttamaan</w>
hti vät</w>
Kai paan</w>
torju nnassa</w>
muistu tti</w>
valtuu tettu</w>
usta n</w>
oike a
ai ke
myönnettä vän</w>
muu tu</w>
ku k
Ro ad</w>
sovell ettu</w>
pare mmat</w>
ista kin</w>
M IN</w>
vie vät</w>
taso on</w>
jyr kä
avar uu
ku oli
Jä tin</w>
vaiku ttava</w>
huippu kokous</w>
ystä vää</w>
Virafer on
tan to
b el
92-7 8-
sta voi
kysely loma
mu se
yksity inen</w>
tuke miseen</w>
Häne lle</w>
Ta sa
ve s</w>
ssi ä</w>
ehdo ttanut</w>
A p
te tuista</w>
j alat</w>
etsi vä</w>
Maastrich tin</w>
tarkoitu kse
kiinn itys
Todell akin</w>
Ta voite</w>
32 23</w>
15 7</w>
u teli
joudu mme</w>
P yr
Ba yer</w>
ten site
kertomu ksesta</w>
tap poi
kuul osta
est e</w>
K ra
kul ki
järjest ettiin</w>
il mene
tiety illä</w>
Mat kusta
leik kaa
korva uksia</w>
kansainväl isessä</w>
po hti
kää nny</w>
kuunn ellut</w>
miel i</w>
liitty västä</w>
hy vi
säil ö
stä vä
määrä ttyjen</w>
ko issa</w>
17 8</w>
vu di
ku mpikin</w>
OLOS UHTEET</w>
ryhmä mme</w>
pelasta maan</w>
Euroopa lle</w>
ha isee</w>
on en</w>
u e</w>
poli isia</w>
ju tt
Tek st
N osta</w>
tie lle</w>
O stin</w>
MUU TA</w>
- Nyt</w>
ker santti</w>
havai taan</w>
g iin</w>
rapor tit</w>
neuvottelu ihin</w>
Ki ppis</w>
I H
E ar
tä mällä</w>
il täsi</w>
ulko isen</w>
luo tettava</w>
it sa
Anno stus</w>
teke mät</w>
koro t</w>
joi hin
helpo mpi</w>
vihdo inkin</w>
ni miä</w>
alu eilta</w>
ven tti
sy ks
laad un
kerä tä</w>
Jo tkin</w>
EH TY</w>
mur s
mi a
f ra
Barro so</w>
V ol
näy tel
myönne tyt</w>
mi inin</w>
liha s
- Minun</w>
väär än</w>
tarjoa jien</w>
matto masti</w>
kansainväl isesti</w>
joka iselle</w>
AS TO</w>
p -</w>
Seitse män</w>
17 2</w>
pää tettiin</w>
nouda ta</w>
Ko hde</w>
raken teet</w>
mie mme</w>
- organis
si pu
sall i</w>
suru llinen</w>
kulu ja</w>
pyyd ettiin</w>
onnistu a</w>
turva ta</w>
Ta poi
San oiko</w>
vanhe mpi</w>
teh ta
materiaal in</w>
ero jen</w>
SO P
ke ille</w>
jatka mme</w>
mahdollisuu ksista</w>
Euro polin</w>
vi inin</w>
turva llisesti</w>
huono a</w>
tekemis issä</w>
kohta us</w>
huol issasi</w>
a ksesi</w>
ta anin</w>
kehitty nyt</w>
haast eet</w>
Mo i</w>
Lonto ossa</w>
met ri
met for
kku un</w>
Te hd
van hu
syy tö
ihm ettel
P ää</w>
vil jan</w>
kontroll oidu
edusta ja
TER IAALI
piste eseen</w>
inn an
Mor gan</w>
Luettel o</w>
tule vina</w>
rahan i</w>
pai kan
Yhte istyö</w>
Vi elä
F A
pi ini</w>
maailma lle</w>
kesku ste
isin pa</w>
ha en</w>
valtio varain
pu ku</w>
halua isit</w>
OHJ EET</w>
seura uksista</w>
rahoitus osuus</w>
jää neet</w>
ine ja</w>
ha itt
fen yyli
tiety ille</w>
alen taa</w>
C ity
pää oma</w>
näy ttel
kansainväl isellä</w>
olo gian</w>
lla s</w>
kehitty y</w>
järjest että
her ine</w>
Ajattel en</w>
sie menet</w>
KO MIT
Ai ku
se ikkojen</w>
tuomioistu inten</w>
ka sin</w>
ar ki
Si ksikö</w>
Al geri
ran nalla</w>
laaju isen</w>
joka isessa</w>
vaike ita</w>
elektro ni
soker i</w>
ai kanaan</w>
seur annan</w>
oikeus käytännön</w>
men a</w>
Tuo te
Na tri
2 b</w>
ttel usta</w>
peruste ena</w>
pan k
D on</w>
- B
H in
tu ille</w>
kaver eita</w>
1 17</w>
tiedustel u
mmä stä</w>
V aan</w>
Sisä l
yhteenkuulu vuuden</w>
aiko i</w>
taistel ua</w>
mal an</w>
0 5
ve en</w>
Emil y</w>
3. 2</w>
katso mme</w>
To istan</w>
ite tuista</w>
auto maa
Keski -
B O
humanitaar isen</w>
vien yt</w>
se ksi
la ar
isi kaan</w>
Pi detään</w>
lämpö tilassa</w>
amerikkala inen</w>
ajattel ee</w>
vira llista</w>
sisälty vien</w>
a ita</w>
is kun</w>
ci al</w>
asiakka ille</w>
sii pikar
utta vat</w>
suunnitel mat</w>
eläi mille</w>
8 4
vastuu seen</w>
satu ta</w>
ni assa</w>
Vai kea</w>
syy täni</w>
edelleen kin</w>
vahing oitta
va ko
un ka
vir ran</w>
yhdenmuka inen</w>
riko stuo
pi ru
määrä enemmistöllä</w>
lau ka
aio taan</w>
Smit h
lin jan</w>
hi lle</w>
epä oikeudenmuka
Bal ti
9 99</w>
w an
g as</w>
ett ette</w>
rajo itettu</w>
lähen tymis
eloku van</w>
lin tujen</w>
Hän hän</w>
tuu li
kaupun ge
jat koi</w>
kor ttia</w>
HÄ VIT
.. ..</w>
nta vii
Sy ö</w>
vaihtoehto isten</w>
numer o
paika lta</w>
maatalo us</w>
Väli meri-
toimitta mista</w>
Miel en
edellyttä mät</w>
kuts u</w>
koulu sta</w>
est er
laati mista</w>
E ilen</w>
usko maton</w>
miljo onia</w>
J ud
puoliintumis aika</w>
kau emmin</w>
Ser vi
luo miseen</w>
lo ori
is ot</w>
al ihan
suol at</w>
kyy din</w>
Mc G
terv ee
palvelu kseen</w>
luo kkaa</w>
anta misen</w>
T rans
yksittä isen</w>
tehokka a
lykä tä</w>
äiti ä</w>
tyyppi en</w>
o È
us u
lääkin nä
kor vi
asu kasta</w>
sor b
poi kien</w>
pah alta</w>
ile vat</w>
ITTEL U</w>
ttä vien</w>
U C
Sar a</w>
li vat</w>
ku mm
saa minen</w>
roh kaise
puitt eiden</w>
kaupun g
Sa maan</w>
Met sä
9 00</w>
stu in</w>
saata vuus</w>
la sia</w>
kieltäy tyä</w>
europa .</w>
teknologi a
selv isi</w>
torsta ina</w>
re tro
muo vi
Mi ksen</w>
00 000</w>
asi al
Jacks on</w>
monimutka inen</w>
mi ensa</w>
pyrkimy ksiä</w>
riippumatto mien</w>
poi kia</w>
pi zz
suure mman</w>
sisä isiä</w>
ista nut</w>
Phi li
yllä pito
tarkoituksen muka
työ paikan</w>
kerto vat</w>
US E
perustamis sopimuksessa</w>
merk itään</w>
lähte vät</w>
15 1</w>
muodo sta</w>
verenpain een</w>
velvo ite</w>
kolma nteen</w>
ää mme</w>
kohd iste
Tälla ista</w>
No varti
tulkin ta</w>
tuken sa</w>
yrittä jyy
lakisää te
häir itä</w>
asiakirja a</w>
tull in</w>
vähä istä</w>
Puol assa</w>
Lu cy</w>
Jatke taan</w>
las kenut</w>
e tko</w>
myy dään</w>
kansala isi
äänesty s
tutkimu ksesta</w>
perä vaun
hal va
veron maksa
saatta misesta</w>
KAIS U
krite ere
Novarti s</w>
vesi viljely
tunte maton</w>
Työsken tel
sopimus puolten</w>
palvel i
merkitse västi</w>
kuluttajan suoja
Ku kin</w>
raka sta</w>
A G</w>
w ell</w>
lin ja</w>
Pa kko</w>
turvo tus</w>
sisä asioiden</w>
lausun toja</w>
lyhy ellä</w>
jää t</w>
av ustus
vuo ro</w>
ensimmä isellä</w>
tarjo lla</w>
ken elle</w>
harjoitta vien</w>
Injektione ste</w>
C max</w>
ominaisuu ksien</w>
ma te
ka st
Jes si
kliin iset</w>
henkilö kunnan</w>
opol tto
oikeu tettu</w>
kap teen
poliitt isiin</w>
Ser bian</w>
Kii re
pa kene
ilma isi</w>
suhte issa</w>
löyd ettiin</w>
valvon tavalio
saata vien</w>
käytä n</w>
el and</w>
Winthro p</w>
Jo nes</w>
ä ltä</w>
etta van</w>
P r
M ED
mootto rit</w>
ai ra
Kol um
tuomio ssa</w>
tto mien</w>
dele go
operaati o</w>
ala isessa</w>
on s</w>
löy ty
kuva ttu</w>
jul istuksen</w>
en ia</w>
työ lä
matkusta ja
kiel toa</w>
henkilö ihin</w>
SÄILYT YS
C I
hankke ista</w>
ase taa
Y o
ympäri llä</w>
määritel tyjä</w>
kaikken sa</w>
ar y</w>
to inenkin</w>
ne istä</w>
kohdistu van</w>
Tale ban
Ali ce</w>
tarkoitu ksessa</w>
olosuhte ita</w>
materiaal ia</w>
käyttä minen</w>
ka rva
julkais tiin</w>
L AN
2 :n</w>
SEL OS
w al
tele viestintä
enne taan</w>
Han kin</w>
kehittä misessä</w>
ban a
TEH NYT</w>
Keho tan</w>
19 75</w>
toiminta suunnitelma</w>
suuntaviivo issa</w>
totuu tta</w>
nn een</w>
m etta</w>
Onnittel ut</w>
tö istä</w>
Yhteis ö</w>
viime isten</w>
allekirj oittaa</w>
Yor kiin</w>
va mpaa</w>
use aan</w>
NN Ö
sar ja</w>
kuolle ena</w>
kali um
Tu ho
Te itä</w>
ta hojen</w>
si en
kokou ksissa</w>
Eur o</w>
Bar ry</w>
tekijö istä</w>
ystävä llinen</w>
vapau tetaan</w>
sin änsä</w>
pare mmalta</w>
B un
tunnusta mista</w>
mekanis min</w>
est eiden</w>
ter ve</w>
t si</w>
P O</w>
os opimuksen</w>
le g
puu villa
kerro s</w>
pääsihte eri</w>
menest ys</w>
luo kassa</w>
Tunn et</w>
Lou is</w>
vie hä
ma ri
raka sti</w>
aktii vista</w>
opu laati
luete llaan</w>
ala ikä
SÄILYTYS OLOSUHTEET</w>
Koko nais
AS IA
utu ivat</w>
un elia
ir lantila
asiakirjo ista</w>
tt isi</w>
ta ssa</w>
määritel ty
sen ttiä</w>
ro olin</w>
artikla sta</w>
t rak
op etti</w>
mä inen</w>
ku p
kanna tamme</w>
huomi o</w>
bent so
Mag gie</w>
ur a</w>
py kä
TERIAALI N</w>
Le a
rakente ita</w>
mist o</w>
julka isu
al bu
tu olta</w>
pelä sty
oli kaan</w>
julkilausu ma</w>
IN T
vaiku ttavan</w>
etta vien</w>
S kot
tarjo ttava</w>
psy kiat
TÄMÄ TTÖ
te is
milla isia</w>
mer kkien</w>
el an
pi din</w>
OLOG INEN</w>
Vasta us</w>
Sano kaa</w>
Il taa</w>
14 9</w>
arvioi miseksi</w>
Gla x
yleis istä</w>
s lo
kä v
Ongel ma</w>
yllä pitää</w>
tunnust ettava</w>
työttömyy s</w>
ryh missä</w>
seur annut</w>
kan ssa
tyyppi hyväksyntä
riippuva isia</w>
pit el
ove a</w>
oso itu
Ma da
G rou
varain hoidon</w>
tuo vat</w>
Läh että
kuukau sia</w>
itse t</w>
sosiaal iseen</w>
Yor k</w>
puhu tte</w>
näke mys</w>
C P
uni a</w>
N ei
synte ett
sohjel man</w>
Han kkeen</w>
käs ity
hän kin</w>
5 5
keske yty
ke ksin</w>
aloi ttanut</w>
198 0</w>
komissi oon</w>
kan telu
Pysä ytä</w>
PAKKAUS SELOS
Kööpenhamin an</w>
sukupol ven</w>
lisää vät</w>
ku kka
tapa amme</w>
Ky le</w>
D E-ryhmän</w>
kerto ja</w>
viime isenä</w>
siirty minen</w>
eri llään</w>
kä rj
kom bin
ik enn
VAL TI
Apu aineet</w>
tietä isi</w>
si ini</w>
kulj ettaa</w>
HÄVIT TÄMISEKSI</w>
par ia</w>
palvelu ita</w>
aiheutta mien</w>
re ssa</w>
lann in
ta mis
integ raa
MEN ETTEL
ssä nne</w>
tilin tarkasta
terveyden huollon</w>
luo ksesi</w>
kertomu kset</w>
huole stunut</w>
JÄ TEMA
ystä v
ppi en</w>
luottamu s</w>
tte istä</w>
seura usta</w>
enemm änkin</w>
eli miä</w>
ti et</w>
muu tenkin</w>
Pak istanin</w>
tan s
ui mar
tarjoa misen</w>
luonnoll ista</w>
es itettyä</w>
aiheutu via</w>
Pol ku
i taan</w>
Ol isi
tur ha
seka ann
Ou toa</w>
tyytyvä isenä</w>
ta jusin</w>
n ero
ksi t</w>
kal ta</w>
ansi o
Hyp pää</w>
por tug
S I</w>
perustell usti</w>
her ras
al koivat</w>
S ori</w>
äänestä mme</w>
uus issa</w>
anta mien</w>
pohjo iseen</w>
Tul emme</w>
Mer ki
Hy dro
elin keino
Lil y</w>
4 68</w>
u po
p en</w>
ohj ee
na isista</w>
väli llisesti</w>
ni iltä</w>
itoi mi
H ra</w>
Car ol
valtion tuen</w>
no issa</w>
B ir
mahdoll isesta</w>
tuotannon alalle</w>
ala puolella</w>
JÄTEMA TERIAALIN</w>
yl e</w>
velvo itetaan</w>
so i</w>
s bur
Kansa llisten</w>
räjä hd
ulottu vuuden</w>
yhteisö ä</w>
kor iste
ruu h
ky mp
alkoh olin</w>
aiku isilla</w>
esitteli jänä</w>
tava llisen</w>
sa taa</w>
lähesty y</w>
b li
avoi mia</w>
Itä meren</w>
tila vuus</w>
Ympärist ö</w>
So vel
Kä r
vyy s
tu lle</w>
tarkast usta</w>
työ markkinoille</w>
sääntö ihin</w>
mahdo ton</w>
johtu van</w>
nai da</w>
gly ko
yhd eksi</w>
To ista
lla h</w>
Tytö t</w>
OT TU
KO H
merkity ks
Ir lan
siir tyy</w>
saavutta mista</w>
ka rke
Afgan istanissa</w>
T ed
CYP 2
- Aivan</w>
ab soluu
toimenpit eillä</w>
sa kkaro
uu ksia</w>
piel een</w>
iv inen</w>
au toi
al kuun</w>
K ing
isyy dessä</w>
viestin tä</w>
ven e</w>
g ot</w>
miel u
mb o
lin in</w>
asiantunti ja</w>
Qu in
Etsi kää</w>
min kä
Lu ke</w>
lö i</w>
Uu sien</w>
LAS TEN</w>
väest ö</w>
prosen tti</w>
K ei
tois elta</w>
st eri
selost eessa</w>
po htia</w>
kyy d
Sa har
Pas ki
tien neet</w>
er eh
var oittaa</w>
neljä nne
ka taan</w>
Ka ks
öy stävä
täs menne
suunna ttu</w>
nukku u</w>
lainsäädä nnöstä</w>
glukoo si
vakuu ttu
käte is
Vai hd
tartunn an</w>
ministe rien</w>
halu nneet</w>
ali iton</w>
Ohjel man</w>
verkko ja</w>
kä stä</w>
korjaa miseksi</w>
asianaja ja</w>
S T
yhteis sijoitus
johd a
me kin</w>
elim istö
kolme sti</w>
L ot</w>
vä ke
kkä si</w>
f ri
ane ja</w>
VARO TOIMET</w>
tälla isesta</w>
sisä markkinat</w>
sijaitse van</w>
ERITYISVAROIT UKSET</w>
ttä jä</w>
ssopimu s</w>
j er
ell in</w>
Ko ulu
juh l
tuo tteesta</w>
La h
KÄYT TÄMÄTTÖ
toiminta -
parha ani</w>
ole valle</w>
hyvin kin</w>
maahanmuu tto
J :n</w>
velvollisuu ksia</w>
pitoisuu ksien</w>
os annut</w>
aikataul u</w>
Val tion</w>
Si istiä</w>
K RON
viranoma isilta</w>
LUOK ITTELU</w>
F u
laa jaa</w>
kyse isiin</w>
kin ta
R aja
Me ks
ka inen</w>
riittä viä</w>
laus e</w>
maan antaina</w>
pidä ty
ell istä</w>
ammati llinen</w>
UU S</w>
tu ol
Pro f
Johta ja</w>
ttä en</w>
ky v
Ve to
G ö
poh j
geen i
Tutkimu ksen</w>
ka ttavan</w>
F I
ryö stö
men oihin</w>
IS SÄ</w>
oma lta</w>
yl tä</w>
perjanta ina</w>
taso sta</w>
tan dar
es itän</w>
tuo tto</w>
pi laa</w>
me ksi
tetta essa</w>
sääntely ä</w>
la da
kasvi t</w>
järjest ys</w>
vaar an</w>
tilante ita</w>
ma illa</w>
edi rektii
Ro bin</w>
pyyd etty</w>
enn ettävä</w>
a i</w>
näky mät</w>
atomi energia
väl isissä</w>
tutki ttiin</w>
vuoti aat</w>
tur kki
ti ista
i ra
aja tuksen</w>
Per ust
val innan</w>
ka ista
johdon mukaisesti</w>
eurooppala isesta</w>
KRON OLOGINEN</w>
treff it</w>
sin ussa</w>
V alo
K I</w>
17 1</w>
valmiste ita</w>
piste et</w>
UL OTTU
Lar ry</w>
luettel oa</w>
itte ko</w>
Y din
14 2</w>
tulli tariff
kä mp
AIN E</w>
kynn ys
Lop ulta</w>
tappoi vat</w>
ha at</w>
Sa maa</w>
Mer c
suva itse
o maa
Kes ä
dra maatt
suku puol
K estä
30 -
tavar ali
tuo maan</w>
glu ko
Tarvit s
- Etkö</w>
Y lä
valmis taa</w>
ka ran
voima varojen</w>
pan kit</w>
J un
hy vissä</w>
pyy sin</w>
En siksi</w>
tull it</w>
parann uksia</w>
T el
ttel ut</w>
perhe ensä</w>
- Totta</w>
it kin</w>
sasi oiden</w>
raskaa ksi</w>
pal kan
mielenkiin toista</w>
etsi mme</w>
anno ksilla</w>
N Ä
- ohjelma</w>
s u</w>
ke t</w>
eläkke elle</w>
Valko inen</w>
edellyty ksenä</w>
Gibb s</w>
fen yyli</w>
vasta isesti</w>
määrä tyn</w>
etsin yt</w>
par ka</w>
laatu un</w>
U T</w>
viest iä</w>
2 30</w>
viin in
mahdollista vat</w>
levä tä</w>
ito jen</w>
elo kuva</w>
oh ar
it ule
Te x
ol ka
kuning attar
integro itu
R ee
Epä il
työ si</w>
määrä yksistä</w>
au ttaisi</w>
pu nn
ammu n</w>
suo ria</w>
puheenjohta jaa</w>
analyy si
avoin ta</w>
viitta si</w>
nope an</w>
ku vassa</w>
hävi ttää</w>
aattor in</w>
y d</w>
varova isia</w>
W est</w>
z er</w>
ymmärr ät</w>
sekunn in</w>
ratkaisu ehdotuksensa</w>
er yh
vi ite</w>
perustu via</w>
tuha tta</w>
te ro
siirro t</w>
St rate
siir ry
12 4</w>
säädö kset</w>
kasva vat</w>
Sosi aal
keskity ttävä</w>
ann ettuja</w>
Ni mi
spesi f
se u
liber aal
laj ikke
Le ik
kiel illä</w>
tiedä tkö</w>
koordino intia</w>
jäl ji
maahanmuu ton</w>
ikku nasta</w>
hylä ttävä</w>
Puhel in</w>
usko t</w>
suuru inen</w>
selke itä</w>
rauta teiden</w>
kehittä misestä</w>
anno kseen</w>
tarko itti</w>
valmi uksia</w>
luettel osta</w>
li itetään</w>
kato aa</w>
[...]
